unsigned char model_quantized_tflite[] = {
  0x1c, 0x00, 0x00, 0x00, 0x54, 0x46, 0x4c, 0x33, 0x00, 0x00, 0x12, 0x00,
  0x1c, 0x00, 0x18, 0x00, 0x14, 0x00, 0x10, 0x00, 0x0c, 0x00, 0x08, 0x00,
  0x00, 0x00, 0x04, 0x00, 0x12, 0x00, 0x00, 0x00, 0x18, 0x00, 0x00, 0x00,
  0x48, 0x00, 0x00, 0x00, 0x20, 0x91, 0x00, 0x00, 0x30, 0x91, 0x00, 0x00,
  0xdc, 0xa3, 0x00, 0x00, 0x03, 0x00, 0x00, 0x00, 0x01, 0x00, 0x00, 0x00,
  0x0c, 0x00, 0x00, 0x00, 0x08, 0x00, 0x0c, 0x00, 0x08, 0x00, 0x04, 0x00,
  0x08, 0x00, 0x00, 0x00, 0x1b, 0x00, 0x00, 0x00, 0x04, 0x00, 0x00, 0x00,
  0x13, 0x00, 0x00, 0x00, 0x6d, 0x69, 0x6e, 0x5f, 0x72, 0x75, 0x6e, 0x74,
  0x69, 0x6d, 0x65, 0x5f, 0x76, 0x65, 0x72, 0x73, 0x69, 0x6f, 0x6e, 0x00,
  0x1c, 0x00, 0x00, 0x00, 0xd4, 0x90, 0x00, 0x00, 0xcc, 0x90, 0x00, 0x00,
  0xb4, 0x90, 0x00, 0x00, 0x94, 0x90, 0x00, 0x00, 0x04, 0x90, 0x00, 0x00,
  0xb4, 0x8f, 0x00, 0x00, 0x64, 0x8f, 0x00, 0x00, 0x14, 0x8f, 0x00, 0x00,
  0xe4, 0x8e, 0x00, 0x00, 0xd4, 0x26, 0x00, 0x00, 0xc4, 0x25, 0x00, 0x00,
  0x34, 0x19, 0x00, 0x00, 0xa4, 0x11, 0x00, 0x00, 0x94, 0x0c, 0x00, 0x00,
  0x84, 0x00, 0x00, 0x00, 0x7c, 0x00, 0x00, 0x00, 0x74, 0x00, 0x00, 0x00,
  0x6c, 0x00, 0x00, 0x00, 0x64, 0x00, 0x00, 0x00, 0x5c, 0x00, 0x00, 0x00,
  0x54, 0x00, 0x00, 0x00, 0x4c, 0x00, 0x00, 0x00, 0x44, 0x00, 0x00, 0x00,
  0x3c, 0x00, 0x00, 0x00, 0x34, 0x00, 0x00, 0x00, 0x2c, 0x00, 0x00, 0x00,
  0x24, 0x00, 0x00, 0x00, 0x04, 0x00, 0x00, 0x00, 0xba, 0x6f, 0xff, 0xff,
  0x04, 0x00, 0x00, 0x00, 0x10, 0x00, 0x00, 0x00, 0x31, 0x2e, 0x31, 0x34,
  0x2e, 0x30, 0x00, 0x00, 0x00, 0x00, 0x00, 0x00, 0x00, 0x00, 0x00, 0x00,
  0x18, 0x5d, 0xff, 0xff, 0x1c, 0x5d, 0xff, 0xff, 0x20, 0x5d, 0xff, 0xff,
  0x24, 0x5d, 0xff, 0xff, 0x28, 0x5d, 0xff, 0xff, 0x2c, 0x5d, 0xff, 0xff,
  0x30, 0x5d, 0xff, 0xff, 0x34, 0x5d, 0xff, 0xff, 0x38, 0x5d, 0xff, 0xff,
  0x3c, 0x5d, 0xff, 0xff, 0x40, 0x5d, 0xff, 0xff, 0x44, 0x5d, 0xff, 0xff,
  0x06, 0x70, 0xff, 0xff, 0x04, 0x00, 0x00, 0x00, 0x00, 0x0c, 0x00, 0x00,
  0x86, 0x11, 0x4e, 0x3e, 0x45, 0x88, 0xb7, 0xbe, 0xe1, 0xe0, 0x31, 0xbc,
  0x46, 0x65, 0xe3, 0xbe, 0x48, 0xac, 0x53, 0xbe, 0xc4, 0x9c, 0xf3, 0xbe,
  0x7c, 0x6c, 0xc2, 0x3d, 0x92, 0xec, 0xd2, 0xbe, 0x6c, 0xa9, 0x7b, 0xbe,
  0xcb, 0xa5, 0x2c, 0xbf, 0xc3, 0xa6, 0x00, 0xbf, 0x11, 0xf8, 0x01, 0xbf,
  0x41, 0x21, 0x15, 0x3f, 0xb2, 0x1d, 0xb1, 0x3d, 0xb4, 0x62, 0x85, 0xbd,
  0x90, 0xfa, 0x20, 0xbf, 0x3c, 0x1f, 0xd5, 0xbd, 0x39, 0x92, 0xe7, 0xbe,
  0x8a, 0x1a, 0xcc, 0x3e, 0xfb, 0x3e, 0x2c, 0x3b, 0xdc, 0xb5, 0x80, 0x3e,
  0x8b, 0x57, 0x33, 0xbf, 0x15, 0x88, 0x92, 0xbd, 0x18, 0xc8, 0x74, 0xbf,
  0xb4, 0xd9, 0xca, 0xbd, 0x16, 0x69, 0x3f, 0xbd, 0xf3, 0xf3, 0xf3, 0x3d,
  0xd2, 0x50, 0x27, 0x3c, 0x91, 0x14, 0xfc, 0x3e, 0x9a, 0x48, 0x72, 0xbe,
  0x42, 0xbf, 0xe2, 0x3d, 0xbf, 0xfa, 0x30, 0xbd, 0x9c, 0xd0, 0x96, 0xbd,
  0xde, 0x61, 0x57, 0x3d, 0xd6, 0x22, 0x9f, 0x3e, 0x4b, 0xf1, 0xe9, 0xbe,
  0x43, 0x0a, 0xe7, 0x3d, 0xc8, 0x66, 0xdd, 0x3d, 0xbc, 0xb9, 0xd3, 0xbe,
  0xa6, 0x8e, 0xb0, 0xbe, 0xe7, 0xb8, 0xdf, 0x3e, 0x59, 0x9b, 0x3a, 0x3e,
  0x87, 0xcf, 0xd5, 0xbd, 0x50, 0x8c, 0x8c, 0x3e, 0x41, 0xcb, 0xaf, 0xbe,
  0x14, 0x15, 0x88, 0xbe, 0x78, 0x4e, 0x08, 0x3e, 0xcd, 0xe3, 0x4f, 0xbe,
  0x6c, 0x4d, 0x01, 0xbf, 0x47, 0x72, 0x11, 0xbf, 0x26, 0x90, 0xa6, 0x3e,
  0x8e, 0xa3, 0x6e, 0x3e, 0x0b, 0x21, 0x91, 0xbd, 0x86, 0x88, 0xae, 0xbd,
  0xa7, 0x80, 0xbc, 0xbe, 0xb1, 0xde, 0xf5, 0x3c, 0x2b, 0xd2, 0xca, 0x3c,
  0x37, 0x15, 0xcb, 0xbd, 0x3a, 0x86, 0x1a, 0xbe, 0x29, 0x39, 0x2f, 0x3e,
  0x25, 0xd9, 0xce, 0xbe, 0x8d, 0xf3, 0xa4, 0xbe, 0x49, 0xac, 0x9a, 0x3e,
  0x8f, 0x78, 0x08, 0xbf, 0xcb, 0xce, 0x67, 0xbd, 0x79, 0xdd, 0x1d, 0x3f,
  0x4f, 0x3f, 0xb3, 0x3d, 0x6b, 0xdd, 0xfc, 0xbd, 0xb3, 0x2a, 0x9c, 0xbd,
  0x71, 0x97, 0x80, 0x3d, 0x7f, 0xfa, 0xa2, 0xbe, 0x98, 0x33, 0x26, 0xbf,
  0xf1, 0x52, 0xb2, 0x3e, 0x45, 0x5b, 0xe9, 0xbe, 0xa8, 0x95, 0xfa, 0xbe,
  0x7e, 0x67, 0x65, 0xbd, 0x6f, 0x07, 0x84, 0xbd, 0xc8, 0x87, 0x1b, 0xbf,
  0xa0, 0xfb, 0xd2, 0x3e, 0xd7, 0xaa, 0xb5, 0xbe, 0x46, 0x84, 0x6a, 0x3e,
  0xef, 0x57, 0x18, 0xbe, 0x99, 0xbb, 0x3f, 0xbf, 0x7b, 0xed, 0x17, 0xbf,
  0x38, 0xd9, 0x00, 0x3e, 0x68, 0xfb, 0x0e, 0xbe, 0xb4, 0x55, 0x62, 0xbe,
  0x8b, 0x5d, 0x38, 0x3d, 0xc4, 0xad, 0xd6, 0x3d, 0x5d, 0x7e, 0x39, 0xbe,
  0x50, 0xed, 0x65, 0xbe, 0x2c, 0x6c, 0x0a, 0xbe, 0x09, 0x47, 0x95, 0x3e,
  0x30, 0x81, 0x7d, 0xbe, 0xd2, 0x4a, 0x40, 0xbf, 0x96, 0x2d, 0x15, 0xbf,
  0x12, 0x53, 0x3a, 0x3d, 0x82, 0xcf, 0xa9, 0x3d, 0x48, 0x52, 0xc8, 0xbe,
  0x5c, 0x68, 0xa9, 0xbe, 0x2e, 0xc9, 0x67, 0x3e, 0xf8, 0xfa, 0xce, 0xbe,
  0x1f, 0x95, 0x97, 0x3e, 0xac, 0x3d, 0xb0, 0x3e, 0x86, 0x9c, 0x30, 0xbe,
  0x42, 0xac, 0xc4, 0x3d, 0x69, 0xeb, 0x82, 0xbd, 0x81, 0x1f, 0x19, 0xbf,
  0x2e, 0xf7, 0x8c, 0x3e, 0x6c, 0x17, 0x7e, 0xbd, 0xb4, 0xcb, 0x09, 0xbf,
  0x89, 0x13, 0x74, 0xbe, 0x3e, 0x42, 0xfc, 0xbe, 0xb2, 0x1a, 0x66, 0x3e,
  0x04, 0x03, 0xa6, 0xbe, 0x09, 0xab, 0x87, 0xbe, 0xfa, 0xcb, 0x2c, 0xbe,
  0x1b, 0x17, 0xec, 0xbe, 0xef, 0x1c, 0x5a, 0xbe, 0x8a, 0x19, 0x0b, 0x3f,
  0x07, 0x00, 0x6e, 0xbe, 0xbf, 0x4e, 0x28, 0xbe, 0x88, 0x9c, 0xbb, 0xbe,
  0x11, 0x7e, 0x69, 0xbe, 0x35, 0x7c, 0xa0, 0x3e, 0xfa, 0x65, 0x01, 0xbe,
  0xa5, 0xcf, 0x1a, 0xbf, 0x81, 0x43, 0xae, 0x3e, 0xc1, 0x61, 0x2b, 0xbe,
  0xf8, 0x48, 0xf4, 0x3e, 0x65, 0x08, 0xba, 0x3d, 0xa2, 0x0e, 0x8c, 0xbe,
  0x7b, 0x97, 0xaa, 0xbe, 0xdf, 0xee, 0x5a, 0x3c, 0xf0, 0xfe, 0x71, 0xbd,
  0x21, 0x1c, 0xbd, 0x3e, 0xdc, 0x98, 0xd3, 0xbe, 0xd5, 0x31, 0x08, 0xbe,
  0x4e, 0x28, 0xc5, 0xbe, 0x7f, 0x9a, 0x67, 0xbe, 0x86, 0x82, 0xc4, 0x3e,
  0x50, 0x4c, 0x4b, 0xbe, 0x70, 0xb7, 0x83, 0x3e, 0xda, 0xce, 0xec, 0x3e,
  0xdd, 0x55, 0xfe, 0xbd, 0x53, 0xd0, 0x06, 0x3e, 0xad, 0x41, 0x2f, 0xbe,
  0x9e, 0xb3, 0x11, 0xbe, 0x4a, 0xe1, 0x42, 0xbe, 0xd5, 0xd8, 0xed, 0xbd,
  0xb7, 0x98, 0xde, 0xbd, 0xa8, 0xf1, 0xb6, 0xbe, 0xec, 0x67, 0x3c, 0xbe,
  0xac, 0xcd, 0x0f, 0xbe, 0x4c, 0xc3, 0x02, 0xbc, 0x49, 0x7e, 0x87, 0xbe,
  0x81, 0x6e, 0x8a, 0xbe, 0x80, 0x84, 0x61, 0xbe, 0x1a, 0x91, 0x6d, 0x3d,
  0x08, 0xb7, 0x13, 0x3e, 0x6a, 0xdd, 0xad, 0xbe, 0xaa, 0x15, 0x04, 0x3e,
  0x69, 0x22, 0xf6, 0xbc, 0x66, 0x76, 0xd8, 0xbd, 0xd7, 0x83, 0xcb, 0x3d,
  0x70, 0x2c, 0xb4, 0xbd, 0x2e, 0x1d, 0xc2, 0x3d, 0x90, 0xbd, 0x20, 0xbe,
  0x0c, 0x59, 0x4a, 0x3d, 0xd6, 0xc3, 0x7e, 0xbd, 0xb1, 0x71, 0xeb, 0x3d,
  0x06, 0x50, 0xec, 0x3d, 0x9d, 0x00, 0x8b, 0xbe, 0xec, 0x6c, 0x2f, 0xbd,
  0x5b, 0xc7, 0xbc, 0xbd, 0xc1, 0x4d, 0x11, 0xbe, 0xe9, 0x7a, 0xcc, 0xbd,
  0x1b, 0xa6, 0x0f, 0xbe, 0xae, 0x3f, 0xf0, 0xbd, 0xb3, 0xc0, 0x26, 0x3c,
  0x77, 0x50, 0x2b, 0xbd, 0xd6, 0x20, 0x39, 0xbe, 0x97, 0xf1, 0x6d, 0x3d,
  0x7e, 0xfa, 0x92, 0xbd, 0x0b, 0xf3, 0xf9, 0xbd, 0x8f, 0x51, 0x2d, 0x3e,
  0x24, 0x45, 0x2c, 0x3c, 0xb0, 0x37, 0xae, 0xbe, 0x41, 0x21, 0xe8, 0xbd,
  0xc8, 0xcd, 0x95, 0xbc, 0x1f, 0xa8, 0xfb, 0xbd, 0x40, 0x73, 0xe5, 0x3d,
  0xf8, 0x12, 0x07, 0xbf, 0x38, 0xc3, 0x5e, 0x3e, 0x88, 0x02, 0xc3, 0xbe,
  0xec, 0xb4, 0x76, 0x3d, 0x68, 0xd7, 0xb1, 0x3d, 0xda, 0xcb, 0x66, 0x3e,
  0x11, 0x8c, 0x5e, 0xbe, 0x3b, 0xa5, 0x5d, 0xbe, 0x1b, 0xec, 0xa7, 0xbc,
  0x83, 0x07, 0xd2, 0x3c, 0x4f, 0xc4, 0xbb, 0xbc, 0x7e, 0xd5, 0xa5, 0xbe,
  0xd0, 0x43, 0xb3, 0xbd, 0x81, 0xc4, 0x82, 0xbe, 0x1d, 0x17, 0x6d, 0x3e,
  0x67, 0x0c, 0x04, 0x3e, 0x80, 0x46, 0xd4, 0xbe, 0xb0, 0xef, 0x43, 0xbe,
  0xc9, 0xbe, 0xa6, 0x3e, 0x72, 0x82, 0x9a, 0x3e, 0x32, 0x68, 0x8e, 0x3e,
  0x4f, 0xfb, 0x8b, 0xbe, 0xb3, 0x17, 0x93, 0xbb, 0xe2, 0x8d, 0x13, 0xbd,
  0xef, 0xfd, 0x61, 0x3e, 0x3b, 0x23, 0xad, 0x3e, 0x92, 0x6a, 0x6e, 0xbe,
  0xa9, 0x77, 0x0c, 0xbe, 0x58, 0x0c, 0x31, 0x3e, 0x67, 0x06, 0x63, 0xbe,
  0x00, 0x2b, 0x77, 0x3d, 0x7d, 0xe7, 0xf1, 0xbe, 0x9b, 0xbe, 0xc5, 0xbc,
  0x6a, 0xe5, 0xa0, 0xbe, 0xa9, 0x5e, 0x6d, 0x3e, 0x1c, 0x80, 0x81, 0x3e,
  0x6e, 0xd4, 0xce, 0xbe, 0xb9, 0xe9, 0x2f, 0xbf, 0xb7, 0x4d, 0xf1, 0xbe,
  0x82, 0xe9, 0x6a, 0x3c, 0x56, 0x9d, 0xea, 0xbd, 0x5a, 0x2c, 0xc1, 0x3d,
  0x07, 0x2a, 0x8e, 0xbd, 0x1c, 0x13, 0xd0, 0xb9, 0x8c, 0xeb, 0xc4, 0x3e,
  0x0d, 0x02, 0x81, 0x3d, 0xcb, 0xb8, 0x67, 0x3d, 0x7c, 0x9f, 0x7a, 0xbd,
  0x7b, 0x06, 0xb7, 0xbf, 0x53, 0x46, 0x48, 0x3d, 0x01, 0xaa, 0xc4, 0xbe,
  0xf1, 0x1a, 0x80, 0xbd, 0x6d, 0x11, 0x57, 0xbf, 0x82, 0x74, 0xb1, 0xbc,
  0x45, 0x3f, 0x54, 0x3e, 0x5d, 0x24, 0x6d, 0x3d, 0x9d, 0x83, 0xd7, 0xbf,
  0xec, 0x31, 0xd0, 0x3e, 0x05, 0xa9, 0x84, 0xbe, 0x6e, 0x48, 0x21, 0xbe,
  0x38, 0xd3, 0x4f, 0xbf, 0xef, 0x80, 0x59, 0xbd, 0x4e, 0xf7, 0xd7, 0xbd,
  0x8c, 0x9f, 0xce, 0xbe, 0x9c, 0x6e, 0xa3, 0xbf, 0xea, 0xdb, 0x92, 0x3e,
  0xed, 0x92, 0x2f, 0xbf, 0x5c, 0x25, 0xcc, 0xbd, 0x72, 0xd9, 0x38, 0xbf,
  0x12, 0xcc, 0x18, 0x3e, 0x96, 0xf3, 0xd0, 0x3c, 0xf6, 0xaf, 0x46, 0x3f,
  0xcd, 0x01, 0xb2, 0xbf, 0x4b, 0xb6, 0x66, 0xbd, 0x49, 0x3e, 0x83, 0x3d,
  0x9e, 0x45, 0x32, 0xbe, 0x5a, 0x52, 0x10, 0xbf, 0xd0, 0x8e, 0x60, 0x3c,
  0xc4, 0x1a, 0x16, 0xbe, 0xf6, 0x0b, 0xb7, 0x3d, 0x12, 0x67, 0x21, 0xbf,
  0x59, 0xfc, 0x09, 0x3e, 0xf6, 0x23, 0xc5, 0xbf, 0x19, 0x2d, 0x0b, 0x3e,
  0x5a, 0x94, 0x14, 0xbf, 0x77, 0x67, 0x2c, 0xbc, 0xa0, 0x49, 0xbf, 0x3c,
  0x98, 0xc9, 0x2a, 0xbd, 0xec, 0x3c, 0xb3, 0xbf, 0xbd, 0x0c, 0x35, 0x3e,
  0x76, 0x45, 0xcf, 0x3e, 0x86, 0xd6, 0xc5, 0x3d, 0x85, 0x98, 0xc9, 0x3e,
  0xb5, 0x55, 0x6f, 0xbe, 0x87, 0x7e, 0x6f, 0xbf, 0x09, 0x22, 0xfe, 0x3e,
  0xe9, 0xdb, 0xd9, 0xbe, 0x3f, 0x18, 0x35, 0xbf, 0x1f, 0x37, 0x2a, 0x3e,
  0xba, 0x8e, 0xb5, 0x3e, 0xec, 0xe5, 0x86, 0xbe, 0xee, 0x86, 0x0e, 0xbf,
  0x2a, 0x24, 0x48, 0xbe, 0xc2, 0xa0, 0xab, 0x3e, 0xc0, 0x1e, 0xdd, 0xbd,
  0x6f, 0x15, 0xb5, 0x3e, 0xb7, 0xa7, 0x7c, 0x3e, 0xac, 0x6b, 0x5d, 0xbe,
  0x9f, 0x31, 0xe1, 0xbd, 0x32, 0xdb, 0x02, 0xbe, 0x37, 0x2e, 0x15, 0x3f,
  0xb5, 0xfd, 0x95, 0xbe, 0xc4, 0x3f, 0x69, 0xbe, 0x8e, 0x50, 0xf2, 0xbe,
  0x23, 0x5e, 0x90, 0xbd, 0x37, 0x5f, 0x00, 0x3c, 0x10, 0x3a, 0x0c, 0xbe,
  0x59, 0x9b, 0x4b, 0xbe, 0x23, 0x8f, 0x28, 0xbe, 0x3b, 0xf0, 0x06, 0xbf,
  0xa3, 0x8d, 0x28, 0xbf, 0x30, 0x66, 0xa3, 0xbd, 0x70, 0x2b, 0x87, 0xbe,
  0x3d, 0xfb, 0xde, 0x3d, 0x76, 0x74, 0xc0, 0x3e, 0xc1, 0x7a, 0x5d, 0x3a,
  0x5e, 0x1d, 0xa9, 0xbe, 0x13, 0xef, 0x0a, 0xbe, 0x33, 0xe2, 0xab, 0xbc,
  0xeb, 0x68, 0x7f, 0xbe, 0x86, 0xd1, 0x5e, 0x3e, 0x30, 0x74, 0x07, 0xbf,
  0xc1, 0x4f, 0xe0, 0xbe, 0xa5, 0xe0, 0x55, 0xbd, 0xe9, 0xdf, 0x1d, 0xbe,
  0x2a, 0x11, 0xae, 0xbe, 0xb9, 0x38, 0x13, 0x3e, 0x41, 0x05, 0x0d, 0xbf,
  0xbc, 0xcb, 0xbe, 0x3e, 0x96, 0x22, 0x8c, 0xbe, 0x69, 0xf2, 0x8c, 0x3e,
  0xd8, 0xaa, 0x7b, 0xbd, 0x48, 0x94, 0x97, 0x3e, 0xf5, 0x5e, 0xda, 0x3d,
  0x56, 0x5e, 0xfa, 0xbc, 0x98, 0x35, 0x98, 0xbe, 0x12, 0xb2, 0x0b, 0xbe,
  0x12, 0xc3, 0x8c, 0xbe, 0x4f, 0xc1, 0xd6, 0xbe, 0xa8, 0x28, 0x84, 0xbe,
  0xce, 0xf8, 0xa2, 0x3d, 0x4b, 0xd7, 0x96, 0xbe, 0x66, 0x26, 0xdb, 0xbe,
  0x70, 0x67, 0x37, 0xbe, 0xfa, 0x4d, 0x8a, 0x3d, 0x62, 0xe0, 0x51, 0x3d,
  0xe0, 0x94, 0x36, 0x3e, 0x2c, 0x6c, 0x6a, 0xbe, 0x80, 0xe2, 0xbd, 0xbd,
  0x99, 0xe3, 0x68, 0xbe, 0x21, 0xd3, 0x80, 0xbd, 0x4b, 0x51, 0x94, 0xbc,
  0x17, 0x36, 0x09, 0x3e, 0xdd, 0x27, 0x5a, 0x3c, 0x38, 0x67, 0xb6, 0xbe,
  0xcc, 0x8e, 0x97, 0x3d, 0x0c, 0x1a, 0x74, 0x3e, 0x3c, 0x4e, 0x1f, 0xbe,
  0x12, 0xba, 0xd8, 0xbe, 0xcc, 0x76, 0x7d, 0x3e, 0x1e, 0x82, 0x20, 0x3e,
  0xba, 0x16, 0x4d, 0xbe, 0xc1, 0x1d, 0x5a, 0xbe, 0xa7, 0xe3, 0x66, 0x3d,
  0x82, 0xcc, 0x0b, 0xbf, 0x00, 0xdf, 0xd2, 0x3d, 0x68, 0xa5, 0x9f, 0x3d,
  0xe9, 0xe6, 0xab, 0xbd, 0x52, 0x26, 0x34, 0xbe, 0x31, 0x4b, 0x24, 0xbe,
  0x23, 0x8b, 0x9a, 0xbe, 0xbf, 0x60, 0x1f, 0x3e, 0x82, 0x84, 0x79, 0xbe,
  0x21, 0x8c, 0x4a, 0x3d, 0x23, 0xcd, 0x6d, 0xbe, 0xfb, 0x79, 0x61, 0xbe,
  0x59, 0x5a, 0x2c, 0x3e, 0xfd, 0xd2, 0x81, 0x3e, 0x10, 0xe3, 0x02, 0x3e,
  0xae, 0xa6, 0xc6, 0x3e, 0xc8, 0x4e, 0xc2, 0xbe, 0xff, 0xf5, 0x93, 0xbe,
  0x87, 0x91, 0x22, 0x3e, 0xdb, 0x79, 0xdf, 0xbe, 0x7b, 0xa5, 0x64, 0x3e,
  0xb4, 0x3a, 0x62, 0xbf, 0x01, 0x15, 0xff, 0x3e, 0x88, 0x0d, 0x83, 0xbf,
  0x53, 0x76, 0x55, 0x3e, 0x9e, 0x83, 0xe2, 0x3e, 0x58, 0xaa, 0x92, 0x3d,
  0xad, 0x2e, 0xb7, 0xbe, 0xc1, 0xeb, 0x36, 0xbf, 0xd3, 0x2b, 0x63, 0xbf,
  0x07, 0xa2, 0xa4, 0x3e, 0xb5, 0x7b, 0x06, 0x3e, 0x7f, 0x2e, 0x0b, 0xbf,
  0x93, 0x98, 0xd9, 0xbe, 0xb2, 0xfe, 0x3d, 0x3e, 0xf6, 0x1a, 0x2f, 0xbf,
  0x45, 0x1e, 0x03, 0x3f, 0x8f, 0x0a, 0xb9, 0xbf, 0x2d, 0x9a, 0x43, 0x3f,
  0xbb, 0x24, 0x02, 0xc0, 0x66, 0xa4, 0x34, 0x3d, 0xd3, 0x09, 0x84, 0x3e,
  0x28, 0x07, 0x38, 0x3e, 0x3e, 0x8e, 0x59, 0xbe, 0xbd, 0xe2, 0x02, 0xbf,
  0x75, 0xd0, 0x15, 0xbf, 0xc7, 0x48, 0x4a, 0xbe, 0x9d, 0x88, 0x43, 0x3e,
  0x01, 0xf8, 0xcf, 0xbe, 0x1a, 0x1d, 0x11, 0xbf, 0x68, 0xa3, 0x12, 0xbe,
  0xb3, 0x62, 0x39, 0xbf, 0xd3, 0xe0, 0x25, 0xbe, 0xf6, 0x9c, 0x8b, 0xbf,
  0xe6, 0x16, 0xf5, 0x3d, 0x36, 0x69, 0xaf, 0xbf, 0x3d, 0xbb, 0x2c, 0xbe,
  0x83, 0xe6, 0xe8, 0xbb, 0x0c, 0x61, 0xd1, 0x3e, 0xdf, 0x21, 0xcb, 0xbe,
  0x86, 0xb4, 0x49, 0x3f, 0xfb, 0x90, 0x47, 0x3e, 0xf2, 0xc5, 0x74, 0x3e,
  0xeb, 0x1a, 0xbd, 0x3d, 0x94, 0x60, 0x24, 0xbf, 0x9d, 0xc8, 0xa2, 0xbe,
  0x48, 0xd8, 0x24, 0xbe, 0xb5, 0x7c, 0x6e, 0x3c, 0xe9, 0xaf, 0xe2, 0xbe,
  0xdd, 0x08, 0xba, 0xbd, 0x02, 0xfb, 0x61, 0xbe, 0x10, 0x3f, 0x4d, 0xbd,
  0x9b, 0x89, 0x8a, 0xbb, 0x54, 0xc6, 0x35, 0xbf, 0xde, 0x9a, 0x3e, 0xbf,
  0x08, 0xc4, 0xca, 0x3e, 0xac, 0x20, 0x80, 0xbb, 0x5a, 0x8d, 0x42, 0xbf,
  0xdd, 0xcc, 0x99, 0xbe, 0x77, 0xb2, 0xa2, 0x3e, 0xaa, 0xb0, 0xda, 0xbe,
  0xe8, 0x7b, 0x32, 0x3d, 0x32, 0x14, 0x55, 0x3e, 0x55, 0xfd, 0x16, 0x3e,
  0x82, 0xd8, 0xdf, 0x3d, 0xa1, 0x85, 0x08, 0x3e, 0xac, 0xfd, 0x3e, 0xbf,
  0xcc, 0x41, 0x15, 0x3e, 0x92, 0x10, 0xe8, 0x3e, 0xa8, 0x98, 0x4b, 0xbe,
  0xdf, 0xaa, 0x4c, 0x3e, 0xdb, 0x9d, 0xa9, 0xbd, 0xdb, 0xff, 0x85, 0x3e,
  0xba, 0xa7, 0x34, 0xbf, 0x44, 0x6f, 0x06, 0xbf, 0xc1, 0xd8, 0x17, 0x3e,
  0xd0, 0x6f, 0xf3, 0xbd, 0x0a, 0x08, 0xbe, 0x3d, 0x4f, 0x0b, 0x50, 0x3d,
  0x13, 0x08, 0x40, 0xbe, 0x36, 0x9e, 0xd0, 0x3e, 0x97, 0xb4, 0x41, 0x3e,
  0xe7, 0xec, 0x4b, 0xbd, 0x20, 0xad, 0x37, 0x3d, 0x85, 0xe1, 0x28, 0xba,
  0xf9, 0x24, 0xee, 0xbe, 0x4a, 0x91, 0x57, 0x3e, 0xbf, 0x13, 0xb8, 0xbd,
  0xda, 0x37, 0xb0, 0x3e, 0x25, 0x7e, 0x06, 0xbf, 0xc9, 0xf8, 0x22, 0x3d,
  0x60, 0x81, 0x2c, 0xbd, 0x61, 0x9d, 0x30, 0x3f, 0xa3, 0xc0, 0xea, 0x3d,
  0x67, 0xa9, 0xdb, 0x3e, 0xcb, 0x9e, 0xed, 0xbe, 0x77, 0xaf, 0x76, 0x3e,
  0xaf, 0x28, 0xe5, 0x3d, 0xca, 0x1a, 0xfc, 0x3d, 0x40, 0x05, 0x09, 0xbf,
  0x36, 0x82, 0x9a, 0x3d, 0x79, 0xf5, 0x65, 0xbf, 0x57, 0x35, 0x8b, 0xbd,
  0xc1, 0xef, 0xf4, 0xbe, 0xd6, 0xcc, 0x21, 0xbe, 0x32, 0xef, 0x90, 0x3d,
  0xbd, 0x81, 0x11, 0x3f, 0x06, 0x9b, 0xdb, 0xbe, 0x35, 0xf5, 0x86, 0x3e,
  0x5b, 0xc9, 0xec, 0x3d, 0x85, 0xd2, 0x86, 0x3e, 0xfa, 0xda, 0xd8, 0xbe,
  0x18, 0x60, 0x12, 0x3e, 0xf0, 0x36, 0x08, 0xbe, 0x01, 0xf8, 0x80, 0x3e,
  0xe7, 0x55, 0x9d, 0xbe, 0x60, 0x87, 0x6e, 0xbe, 0x72, 0x21, 0x39, 0xbf,
  0xcd, 0x8a, 0xc7, 0x3d, 0x06, 0x9e, 0x5f, 0x3e, 0x73, 0xd4, 0xc3, 0xbc,
  0x6d, 0x71, 0x34, 0xbd, 0x00, 0xb5, 0x8a, 0x3e, 0xd9, 0x8e, 0x06, 0xbf,
  0x7f, 0xea, 0xe7, 0xbb, 0xcf, 0x1f, 0x3a, 0xbe, 0x35, 0x99, 0x51, 0x3e,
  0x63, 0xa1, 0x15, 0xbe, 0x0a, 0x57, 0x58, 0xbe, 0xa2, 0x19, 0x39, 0xbf,
  0xae, 0x55, 0x8b, 0x3e, 0x8d, 0x66, 0xc4, 0xbe, 0x1e, 0x12, 0xe1, 0xbe,
  0xf4, 0xbe, 0x72, 0xbf, 0x46, 0xa0, 0x65, 0xbe, 0xd7, 0xa1, 0x89, 0x3c,
  0xd1, 0xba, 0x02, 0xbf, 0xc6, 0x5b, 0xff, 0xbe, 0xd4, 0x16, 0xeb, 0x3c,
  0x80, 0x7c, 0xd2, 0xbd, 0x5b, 0x5c, 0xc5, 0x3b, 0x5a, 0x8e, 0x67, 0xbe,
  0xa5, 0xe7, 0x7a, 0x3e, 0x4f, 0x5a, 0x27, 0x3f, 0x56, 0xae, 0xc5, 0x3c,
  0x0c, 0xe0, 0x59, 0x3e, 0xb6, 0xf6, 0xfe, 0x3e, 0x16, 0x4c, 0x00, 0x3d,
  0x51, 0xf0, 0x28, 0xbd, 0xaf, 0x83, 0x07, 0x3f, 0x06, 0x8f, 0x82, 0xbd,
  0xe7, 0x70, 0x3f, 0xbf, 0xed, 0x8e, 0x10, 0xbf, 0x1f, 0xa7, 0x9e, 0x3e,
  0xbc, 0x6d, 0x98, 0x3e, 0x36, 0x88, 0x8c, 0xbe, 0xbb, 0x44, 0x61, 0xbe,
  0xff, 0x15, 0xee, 0xbe, 0x46, 0x60, 0x9b, 0xbd, 0x96, 0x84, 0xe2, 0x3e,
  0xc4, 0xaa, 0x50, 0x3e, 0xe6, 0xd1, 0x30, 0x3e, 0xfb, 0xeb, 0x69, 0x3e,
  0xbb, 0xb9, 0x85, 0x3e, 0xe6, 0x90, 0xea, 0xbd, 0x2c, 0x95, 0xf2, 0x3d,
  0xc9, 0x87, 0x80, 0x3e, 0x5f, 0x10, 0x9d, 0xbf, 0x9d, 0x01, 0x9b, 0xbe,
  0x22, 0x39, 0xc2, 0x3e, 0x4b, 0xd9, 0xee, 0x3e, 0x36, 0x37, 0x6e, 0xbe,
  0xf2, 0x96, 0x9e, 0x3b, 0xe8, 0x0c, 0x49, 0xbe, 0xc7, 0x0f, 0xc1, 0xbd,
  0x16, 0x4c, 0xc9, 0xbd, 0x15, 0x25, 0x0f, 0x3e, 0xe4, 0x74, 0xb0, 0x3e,
  0x58, 0x5b, 0xea, 0x3e, 0x25, 0xab, 0x08, 0xbe, 0xe5, 0xf2, 0xe3, 0x3d,
  0x7a, 0xb8, 0xd5, 0x3e, 0xec, 0x15, 0x0c, 0x3f, 0xd3, 0xe4, 0xd3, 0xbf,
  0x35, 0xb6, 0x9b, 0xbe, 0xee, 0x78, 0xfa, 0x3e, 0x36, 0xc9, 0x50, 0x3e,
  0xbb, 0x42, 0x71, 0xbe, 0xe3, 0xb7, 0x78, 0xbe, 0xd9, 0xb3, 0xf2, 0xbe,
  0xbd, 0x13, 0x80, 0xbc, 0x5a, 0x13, 0xb1, 0x3e, 0x2d, 0x49, 0x44, 0xbe,
  0x0c, 0x2a, 0x90, 0x3e, 0xcf, 0xe5, 0x12, 0x3e, 0x8d, 0x2c, 0xcf, 0xbc,
  0xf8, 0x76, 0x16, 0xbf, 0x8b, 0x2e, 0x5b, 0x3d, 0x8e, 0x58, 0xb9, 0xbe,
  0xcf, 0xbf, 0x46, 0x3e, 0x88, 0x7c, 0x80, 0xbe, 0x67, 0xe1, 0x8d, 0x3f,
  0x42, 0xd9, 0xee, 0xbe, 0xb0, 0x02, 0xa3, 0xbe, 0x40, 0x09, 0x82, 0x3e,
  0xb4, 0xef, 0x65, 0xbb, 0x5e, 0x6f, 0xd4, 0x3e, 0x8f, 0xf6, 0xad, 0x3e,
  0x8d, 0xd9, 0x3c, 0x3e, 0x9c, 0x6d, 0xb1, 0x3e, 0xce, 0x9a, 0x3d, 0x3d,
  0x3b, 0x80, 0xe7, 0xbe, 0x4c, 0x82, 0xcf, 0xbe, 0xee, 0x9c, 0x32, 0x3d,
  0x81, 0xa5, 0xce, 0xbe, 0xcc, 0x07, 0x97, 0x3e, 0x13, 0xa8, 0x81, 0xbe,
  0x99, 0x2a, 0x4c, 0xbd, 0xf9, 0xfb, 0xa8, 0xbe, 0x9c, 0xa3, 0xe0, 0xbd,
  0x29, 0x5a, 0x4a, 0x3e, 0x3a, 0x7d, 0x21, 0xbf, 0xa2, 0x01, 0xa8, 0xbe,
  0xf3, 0x2e, 0x4e, 0xbe, 0x4b, 0xe3, 0x11, 0x3f, 0x97, 0x36, 0x5a, 0x3e,
  0x80, 0xd1, 0xe0, 0x3d, 0x2b, 0x5c, 0x9a, 0xbe, 0x82, 0x87, 0x66, 0xbf,
  0xc1, 0xf1, 0x01, 0xbe, 0x64, 0x77, 0x19, 0x3f, 0xf4, 0x0a, 0x9f, 0xbe,
  0x88, 0x02, 0xef, 0xbe, 0xfa, 0x6e, 0xb7, 0x3e, 0x6d, 0xd6, 0xd8, 0x3e,
  0x48, 0x7c, 0x58, 0xbe, 0x0f, 0xf5, 0x00, 0x3f, 0xb1, 0xdf, 0x68, 0xbd,
  0x12, 0xb2, 0x12, 0xbf, 0x3f, 0x64, 0x8a, 0x3e, 0x55, 0x1a, 0xb6, 0xbe,
  0x86, 0xf7, 0xe6, 0x3e, 0x43, 0x7e, 0xa7, 0xbe, 0xdc, 0x34, 0xe9, 0xbe,
  0xad, 0xa4, 0x13, 0xbe, 0xe7, 0xc7, 0x21, 0xbe, 0x32, 0xbc, 0xa8, 0xbe,
  0xbb, 0xb9, 0x37, 0x3e, 0x69, 0x49, 0xba, 0xbe, 0x04, 0xc1, 0x0b, 0x3b,
  0x3e, 0x51, 0x2c, 0x3d, 0x7f, 0x4b, 0xec, 0x3d, 0x74, 0xbe, 0x78, 0x3d,
  0x33, 0x5b, 0xc1, 0xbe, 0x97, 0xb9, 0x82, 0x3e, 0xb1, 0x30, 0x87, 0xbd,
  0xd1, 0xd4, 0xa2, 0x3c, 0x50, 0x26, 0xa9, 0xbe, 0x5d, 0xb6, 0xff, 0xbd,
  0xe8, 0xa5, 0x17, 0xbf, 0xe4, 0xc9, 0x4e, 0x3d, 0x2f, 0x35, 0xe2, 0x3e,
  0x56, 0x81, 0x9b, 0x3d, 0x54, 0x20, 0x11, 0x3e, 0x3d, 0x55, 0xfb, 0xbe,
  0x97, 0x36, 0xb0, 0x3d, 0x8b, 0xe1, 0xc8, 0xbe, 0x68, 0x18, 0x61, 0xbe,
  0x42, 0x66, 0x3d, 0xbe, 0xec, 0x99, 0x74, 0xbe, 0xc7, 0xb7, 0x26, 0xbe,
  0xde, 0x88, 0xd8, 0xbe, 0xad, 0x0d, 0x34, 0x3e, 0x5f, 0x3d, 0xe6, 0x3e,
  0x2d, 0x5a, 0x3e, 0x3d, 0x80, 0xb8, 0xd9, 0xbc, 0xda, 0xe6, 0x21, 0xbe,
  0x4a, 0xcf, 0x37, 0x3f, 0xd9, 0x20, 0xcf, 0x3e, 0xa3, 0x4b, 0xc6, 0xbe,
  0x32, 0x34, 0x93, 0xbe, 0x32, 0xe8, 0x78, 0xbe, 0xdb, 0x26, 0xac, 0xbd,
  0xc0, 0x01, 0x66, 0xbe, 0xef, 0xf0, 0x22, 0x3e, 0x40, 0xb8, 0xfe, 0xbe,
  0xf6, 0x07, 0x5c, 0x3f, 0xb2, 0x55, 0x30, 0x3f, 0x73, 0xbe, 0xc8, 0x3e,
  0xad, 0xbb, 0x91, 0xbe, 0xd9, 0xd2, 0x90, 0xbe, 0xfb, 0xf9, 0x83, 0xbd,
  0x8f, 0xee, 0x2c, 0xbf, 0x27, 0xea, 0x29, 0x3e, 0xfd, 0xe0, 0xb7, 0x3e,
  0xc8, 0x58, 0xad, 0xbf, 0x26, 0x1c, 0x93, 0xbc, 0xca, 0xcc, 0x2c, 0x3e,
  0x62, 0x52, 0x1b, 0x3f, 0xcc, 0x8a, 0x31, 0xbf, 0xfa, 0xb4, 0x28, 0x3e,
  0x4c, 0x3f, 0x5c, 0x3e, 0xba, 0xab, 0x5a, 0xbd, 0xe0, 0x26, 0x8a, 0x3e,
  0xfd, 0xca, 0x8a, 0xbd, 0x7f, 0xef, 0x96, 0xbe, 0x2c, 0xf6, 0xd7, 0xbe,
  0xc1, 0xca, 0xc7, 0xbd, 0x07, 0xef, 0x02, 0xbf, 0x7f, 0x07, 0x0b, 0x3e,
  0x17, 0x28, 0x4c, 0x3b, 0x0b, 0x04, 0xc7, 0xbe, 0x7d, 0x81, 0xdc, 0xbd,
  0x53, 0x25, 0x28, 0xbd, 0xa5, 0xa2, 0xa4, 0x3d, 0x19, 0xd7, 0xb6, 0xbe,
  0x78, 0x6c, 0xa3, 0x3e, 0x25, 0x16, 0xb3, 0x3e, 0x8b, 0xb0, 0x89, 0x3e,
  0x9c, 0xd1, 0x0e, 0x3f, 0x97, 0x0d, 0xcb, 0xbc, 0x40, 0x09, 0xc8, 0xbe,
  0x96, 0x3a, 0x67, 0xbe, 0x4a, 0x42, 0xbd, 0xbc, 0x83, 0x48, 0x0f, 0xbf,
  0x61, 0x54, 0x2c, 0x3d, 0x7a, 0x03, 0x93, 0x3d, 0xd2, 0x75, 0xab, 0xbe,
  0xb1, 0x99, 0x09, 0xbe, 0x83, 0x9b, 0x91, 0xbb, 0x48, 0x48, 0x07, 0xbf,
  0xd3, 0x97, 0x0f, 0xbf, 0x4b, 0x40, 0xd2, 0x3e, 0x2a, 0x5e, 0x01, 0x3f,
  0xc8, 0x40, 0x7b, 0x3d, 0x9c, 0xf9, 0xdc, 0xbe, 0x9d, 0xaf, 0x09, 0xbf,
  0xb6, 0x14, 0x01, 0xbf, 0xdb, 0x05, 0x33, 0x3d, 0x22, 0x9d, 0x59, 0x3d,
  0x6c, 0x40, 0x12, 0xbe, 0x7f, 0xdd, 0xbd, 0xbd, 0xb7, 0xca, 0x08, 0xbe,
  0x66, 0xf3, 0xf6, 0x3d, 0xba, 0xfb, 0x9f, 0x3a, 0x5f, 0x53, 0x10, 0x3e,
  0x37, 0x6b, 0x73, 0x3e, 0xdb, 0xcb, 0xb8, 0x3e, 0x97, 0x9a, 0xb7, 0xbc,
  0x29, 0x65, 0x92, 0xbb, 0x4e, 0x51, 0xd4, 0x3e, 0x51, 0xf1, 0x2b, 0x3e,
  0x5f, 0xb4, 0x3f, 0x3e, 0x7c, 0xe4, 0xf2, 0xbd, 0x14, 0x5b, 0x9e, 0xbe,
  0x1d, 0x8a, 0xef, 0xbd, 0x79, 0x38, 0xc1, 0xbe, 0xb6, 0xe0, 0x4b, 0xbe,
  0x93, 0xae, 0xcf, 0x3c, 0xf7, 0x9b, 0x2e, 0xbf, 0xee, 0x93, 0xa4, 0x3e,
  0x7f, 0xef, 0xa6, 0x3e, 0xc1, 0x9c, 0x76, 0xbd, 0xe3, 0x61, 0x25, 0xbf,
  0x8b, 0x5f, 0x53, 0x3d, 0xa5, 0x9d, 0xc8, 0x3e, 0x29, 0x24, 0xaa, 0xbe,
  0x0b, 0x9a, 0xaa, 0x3d, 0xdb, 0x8f, 0x90, 0xbe, 0xa6, 0xeb, 0x6f, 0xbe,
  0x19, 0x81, 0x2e, 0xbe, 0x64, 0xe8, 0x12, 0x3e, 0x5e, 0x64, 0xb2, 0xbe,
  0x25, 0xd6, 0x25, 0x3c, 0xf3, 0x8e, 0x0a, 0xbe, 0x5c, 0xfc, 0xd9, 0x3d,
  0x0b, 0xfc, 0x92, 0x3e, 0xa2, 0x6a, 0xaf, 0x3e, 0x98, 0x78, 0xbf, 0xbe,
  0x9b, 0x49, 0x9b, 0xbe, 0x25, 0xd9, 0xe2, 0xbe, 0xfd, 0xdc, 0x8f, 0xbe,
  0x12, 0x7c, 0xff, 0xff, 0x04, 0x00, 0x00, 0x00, 0x00, 0x05, 0x00, 0x00,
  0x27, 0x8e, 0x52, 0xf2, 0x5e, 0xd8, 0xe5, 0x6f, 0x7f, 0xe0, 0x2a, 0x1f,
  0x21, 0xfa, 0x2d, 0xf5, 0xb9, 0xd6, 0x17, 0xe5, 0x13, 0xe5, 0xa7, 0x16,
  0xfa, 0xdf, 0xee, 0xce, 0xb7, 0xf9, 0xd8, 0x20, 0xcc, 0xf2, 0x0e, 0xb0,
  0x0f, 0x27, 0x05, 0xcc, 0xef, 0xb8, 0x9f, 0xcc, 0xac, 0xe3, 0xec, 0x2a,
  0xe4, 0xaa, 0xbe, 0xdf, 0xeb, 0xe0, 0xd5, 0xef, 0xf2, 0xf6, 0xa5, 0xd7,
  0x26, 0xed, 0xe0, 0x3a, 0xfe, 0x91, 0xe2, 0xf9, 0xc9, 0x02, 0xb3, 0xe2,
  0xea, 0x2e, 0xe8, 0xd3, 0x53, 0xf6, 0x40, 0x06, 0x05, 0x2e, 0xee, 0x20,
  0xe1, 0xd2, 0xa8, 0x1b, 0x00, 0x14, 0x1a, 0xb8, 0xdc, 0xe7, 0xdb, 0xc2,
  0x1b, 0x23, 0xe3, 0x1d, 0xea, 0xcb, 0xee, 0xc6, 0xc7, 0xd4, 0x19, 0x0a,
  0xba, 0xc3, 0x1a, 0x81, 0x13, 0x22, 0x28, 0xec, 0xd8, 0xa4, 0xdc, 0xb1,
  0x85, 0xd3, 0xf6, 0x22, 0xa3, 0xf7, 0xcc, 0xa0, 0x02, 0x14, 0x20, 0xd9,
  0xa9, 0xcf, 0xdb, 0xd3, 0xea, 0xf2, 0xdf, 0x0d, 0x37, 0x23, 0xc5, 0xc8,
  0xe0, 0xe2, 0xe6, 0xfa, 0x8f, 0xe5, 0xc1, 0xd8, 0x04, 0x01, 0xe8, 0x1d,
  0xd8, 0xeb, 0xd0, 0x96, 0xff, 0xcd, 0x19, 0x0a, 0x0c, 0x81, 0x2e, 0x0a,
  0x0b, 0xf9, 0xf2, 0xdf, 0x3e, 0xd2, 0xf7, 0xd7, 0x0f, 0xf0, 0x4d, 0x04,
  0x17, 0xd8, 0xf1, 0xd7, 0xf5, 0x0b, 0x17, 0xdc, 0x45, 0xe7, 0xe8, 0xfb,
  0x54, 0x0e, 0x04, 0xed, 0x05, 0xda, 0x0a, 0xe6, 0x09, 0x0d, 0xdd, 0xba,
  0x09, 0xf5, 0x0a, 0xb8, 0x3b, 0x3e, 0xe0, 0xd4, 0xf1, 0xc9, 0x03, 0xeb,
  0x07, 0x01, 0x09, 0x1b, 0x2f, 0xb5, 0x1f, 0xf2, 0xf9, 0x24, 0xfa, 0xe5,
  0x3e, 0xb0, 0x11, 0x29, 0x1f, 0xda, 0x22, 0xe0, 0xfb, 0x1a, 0x2e, 0x13,
  0xfc, 0x6d, 0xc9, 0xa8, 0x29, 0xff, 0x09, 0xfa, 0x08, 0xb0, 0x37, 0xbb,
  0x15, 0xc0, 0x11, 0x0d, 0x38, 0xef, 0x4c, 0x05, 0xbc, 0xce, 0x48, 0x14,
  0x08, 0xf9, 0x13, 0xfb, 0x41, 0x2f, 0xaf, 0x0e, 0x13, 0x51, 0x27, 0x2b,
  0x81, 0x04, 0x50, 0xb0, 0xf2, 0xdc, 0x12, 0xb9, 0xf7, 0xde, 0xb9, 0xff,
  0xf7, 0x71, 0xfa, 0xdc, 0xfc, 0xd3, 0x01, 0xca, 0x3d, 0x0b, 0x03, 0xb8,
  0xca, 0xc3, 0xce, 0xda, 0x10, 0x6a, 0x21, 0xcc, 0x16, 0x1d, 0xf5, 0x68,
  0x3c, 0xf8, 0x2d, 0xf0, 0x2a, 0x35, 0xdd, 0xf2, 0x0a, 0x04, 0xea, 0xbe,
  0x27, 0x1d, 0x21, 0xe3, 0xc5, 0xe0, 0x08, 0x06, 0x26, 0xb0, 0xc0, 0xf5,
  0xa7, 0x15, 0xf0, 0xb3, 0x1e, 0xb7, 0x3d, 0xf4, 0x21, 0xda, 0x1f, 0x94,
  0xfb, 0xfa, 0x2f, 0xcb, 0x81, 0x2f, 0x37, 0xbc, 0x03, 0x07, 0x1c, 0xd3,
  0xe0, 0x05, 0x29, 0xb8, 0xee, 0x09, 0x73, 0x14, 0xea, 0x19, 0x5a, 0xd1,
  0x12, 0x0b, 0x07, 0xb1, 0x21, 0xf1, 0xfd, 0x9d, 0x77, 0xe7, 0x15, 0xf1,
  0x6c, 0xbf, 0x04, 0x15, 0xd4, 0xe1, 0xa1, 0xe5, 0x38, 0x56, 0x1a, 0x2c,
  0x40, 0x94, 0xed, 0x10, 0x26, 0x4e, 0xee, 0x01, 0x4b, 0x19, 0x04, 0xe1,
  0xfe, 0x23, 0x09, 0xfe, 0xd5, 0xd4, 0x10, 0x18, 0xed, 0x3e, 0xe4, 0x05,
  0x3f, 0x47, 0xda, 0xdd, 0xef, 0xff, 0xf9, 0x01, 0x1f, 0x34, 0x03, 0x2b,
  0x2c, 0x0a, 0x2d, 0x0e, 0xc4, 0x30, 0x00, 0x17, 0xdf, 0xd9, 0x15, 0x0d,
  0xdd, 0x3c, 0xf7, 0xf0, 0xf6, 0x17, 0xfd, 0x26, 0xff, 0x2b, 0x1f, 0xf5,
  0xc8, 0x36, 0x21, 0x08, 0xd6, 0x0d, 0xd1, 0xfb, 0x02, 0x47, 0x0b, 0x0e,
  0x1b, 0x7f, 0x11, 0x05, 0xdf, 0x21, 0xf2, 0x08, 0xcd, 0xee, 0xf1, 0x24,
  0x2d, 0xe4, 0xfd, 0xdb, 0x0d, 0x2c, 0x18, 0x14, 0x11, 0x11, 0x05, 0x01,
  0xe1, 0x1a, 0x07, 0x0f, 0xfa, 0xcc, 0xeb, 0x10, 0xc8, 0x05, 0x4e, 0x36,
  0xdf, 0x1c, 0x1a, 0x17, 0xb7, 0x16, 0xf7, 0xe5, 0xce, 0xc6, 0x18, 0xfd,
  0x1d, 0x1f, 0x0a, 0xdb, 0x1e, 0x14, 0xfd, 0xe5, 0xc4, 0x1a, 0x00, 0x0b,
  0xfe, 0x22, 0x7f, 0xdb, 0xda, 0xf3, 0x0f, 0xee, 0xf4, 0x4b, 0x17, 0xfa,
  0xeb, 0x11, 0x07, 0x03, 0x2e, 0x2c, 0x1e, 0x02, 0x04, 0x10, 0xfd, 0xbb,
  0x00, 0x45, 0x47, 0x1b, 0x0f, 0xfc, 0xd9, 0x23, 0x05, 0x66, 0x24, 0x2d,
  0xe3, 0x05, 0x59, 0x30, 0x38, 0xdf, 0xf6, 0xa2, 0x42, 0xd8, 0x05, 0x17,
  0x09, 0x21, 0x61, 0x3b, 0xf0, 0xe1, 0x1b, 0x28, 0x05, 0xce, 0x42, 0xc5,
  0x13, 0xbb, 0xf0, 0xf3, 0x2c, 0x30, 0x29, 0x25, 0xf4, 0xf9, 0xd5, 0x18,
  0xbe, 0xb8, 0x10, 0x10, 0x0a, 0x13, 0xfe, 0xe7, 0x22, 0x17, 0x28, 0xc6,
  0xdb, 0xf6, 0xd6, 0x0d, 0xd3, 0xba, 0xd6, 0x7f, 0x35, 0x05, 0xf1, 0xbe,
  0x0b, 0x41, 0x48, 0x15, 0x9e, 0xa0, 0xef, 0x08, 0xeb, 0x1d, 0x18, 0x4a,
  0x10, 0xea, 0x1d, 0x1d, 0x6d, 0xf6, 0x04, 0xdc, 0x54, 0x84, 0x2f, 0xfe,
  0x3b, 0x09, 0xcd, 0x00, 0x23, 0xaf, 0x1a, 0xce, 0x25, 0x25, 0x13, 0xfb,
  0x06, 0xc9, 0x1f, 0xce, 0xa0, 0x20, 0xf8, 0x4a, 0x0e, 0x07, 0x7f, 0x2a,
  0x0a, 0x58, 0x7f, 0x0c, 0x3a, 0xa6, 0x1b, 0xe8, 0xcf, 0x93, 0x28, 0xa1,
  0x3f, 0x13, 0x37, 0xe4, 0x5c, 0x55, 0x0f, 0xd7, 0xe8, 0x8b, 0x7a, 0x03,
  0xf4, 0x2a, 0x1e, 0xbe, 0x58, 0xe4, 0x0a, 0x09, 0x6f, 0x7d, 0x70, 0x3a,
  0x0c, 0xb4, 0x32, 0x1d, 0x69, 0x95, 0x55, 0x11, 0x32, 0xf4, 0x14, 0x8d,
  0x02, 0x1b, 0xa6, 0xc1, 0xb3, 0x0a, 0xec, 0xbd, 0xc0, 0xb0, 0x90, 0xf5,
  0x17, 0xe3, 0xe8, 0x90, 0x17, 0x04, 0xc6, 0xdc, 0xe8, 0x12, 0xd6, 0xae,
  0x9f, 0xda, 0x0c, 0xa8, 0xd6, 0x62, 0x0b, 0x3c, 0xcb, 0x34, 0x30, 0xf8,
  0xd9, 0x44, 0xee, 0xec, 0xd0, 0xc6, 0xb4, 0xe1, 0xd5, 0x16, 0x03, 0x18,
  0xcf, 0xc7, 0x08, 0x78, 0xe0, 0x3e, 0xe8, 0x1d, 0x03, 0xb7, 0x81, 0xfe,
  0x4e, 0x01, 0xd4, 0x0b, 0xd2, 0x86, 0xb8, 0x46, 0xf7, 0x3e, 0xac, 0x20,
  0x74, 0xaa, 0xe8, 0x12, 0x37, 0x0c, 0xe1, 0xdf, 0x22, 0x36, 0xdd, 0xec,
  0xa1, 0x01, 0xf4, 0xeb, 0xe8, 0x02, 0xdc, 0x9d, 0xe9, 0xfa, 0x0d, 0xfd,
  0xdc, 0x23, 0xdd, 0xf0, 0xb7, 0xeb, 0x0b, 0x2c, 0xaa, 0x09, 0xef, 0x3d,
  0x08, 0x38, 0xfa, 0x81, 0xee, 0xc7, 0xf0, 0x03, 0x1e, 0x0b, 0x30, 0xc5,
  0x04, 0x09, 0x25, 0x07, 0xec, 0x1b, 0x27, 0xf5, 0xc1, 0xf1, 0x2c, 0x56,
  0x2b, 0x1b, 0x11, 0x0b, 0xf8, 0xd0, 0x0d, 0xf5, 0xfb, 0x1d, 0x05, 0x1b,
  0xb5, 0xff, 0x13, 0x14, 0xea, 0x0f, 0x0a, 0xe6, 0x20, 0xda, 0x22, 0xe5,
  0xef, 0x08, 0xbf, 0xf0, 0x3f, 0x0a, 0x30, 0xf7, 0x0b, 0xf9, 0x44, 0xa3,
  0xf2, 0x32, 0x0f, 0xde, 0x0d, 0xe7, 0x1e, 0xf5, 0x4d, 0xf3, 0xc1, 0xe1,
  0x2e, 0xfe, 0x1d, 0xf9, 0x28, 0x22, 0xd1, 0xe2, 0x25, 0xed, 0xfb, 0xf2,
  0x38, 0xf5, 0xe3, 0x90, 0x2b, 0xe8, 0x16, 0x08, 0x16, 0x22, 0x2c, 0xc6,
  0xde, 0x1c, 0xfe, 0x1a, 0xd2, 0xfc, 0x2d, 0xdd, 0x0d, 0xec, 0x25, 0xfa,
  0xf5, 0xeb, 0x1f, 0x85, 0xb1, 0xf7, 0x1a, 0x28, 0xd9, 0x22, 0xe5, 0xdf,
  0x1e, 0x04, 0xcf, 0x1e, 0xa0, 0x81, 0x2b, 0xe2, 0xb5, 0xda, 0x05, 0x1b,
  0xfd, 0x91, 0x0e, 0xa8, 0x0b, 0xdf, 0xd8, 0x4f, 0x1d, 0xcc, 0xa6, 0xeb,
  0x06, 0xe6, 0xc8, 0x0d, 0x34, 0xb7, 0x9b, 0x0c, 0x92, 0xc4, 0x09, 0x0f,
  0x3d, 0x16, 0xc4, 0x35, 0x3b, 0xd6, 0x09, 0x3d, 0x4a, 0x12, 0x83, 0x11,
  0x96, 0xd8, 0xcf, 0xd8, 0x1c, 0xde, 0x08, 0x10, 0x57, 0xe4, 0x1c, 0x32,
  0x04, 0x20, 0x09, 0x01, 0x03, 0xa1, 0x1d, 0xd9, 0x37, 0xeb, 0xf1, 0xc1,
  0x39, 0x03, 0x02, 0x0a, 0x13, 0xc3, 0xfd, 0xe6, 0x0b, 0xa6, 0x02, 0xe0,
  0x13, 0x0a, 0xbc, 0x81, 0x3a, 0x37, 0x13, 0xbb, 0xca, 0x20, 0xd0, 0xf5,
  0xea, 0x3c, 0x4d, 0xc6, 0x29, 0x04, 0xc1, 0x8b, 0xa7, 0x43, 0x4f, 0x3b,
  0xb8, 0xe3, 0x2a, 0x39, 0x14, 0xeb, 0x2a, 0x0f, 0x16, 0x20, 0xec, 0xdd,
  0xf7, 0x1c, 0x50, 0xdc, 0xd9, 0xe1, 0x41, 0xf1, 0x24, 0x02, 0x4c, 0xd3,
  0xe4, 0x29, 0x45, 0xf7, 0x13, 0x28, 0x03, 0x1f, 0x31, 0x47, 0x10, 0xee,
  0xc0, 0xeb, 0xdf, 0xf3, 0xa6, 0x33, 0x2d, 0xe4, 0x2f, 0x1c, 0x32, 0xde,
  0x4a, 0xb8, 0xc7, 0xed, 0xcd, 0x81, 0xd9, 0xcd, 0xc6, 0xac, 0x0b, 0x16,
  0x1e, 0x8a, 0x46, 0xce, 0x14, 0xec, 0xe4, 0x3e, 0xd0, 0x16, 0xbf, 0xe4,
  0xc6, 0x9e, 0xde, 0xb8, 0x31, 0xc0, 0x20, 0x05, 0x13, 0x0e, 0xfb, 0x34,
  0xf6, 0x08, 0x07, 0xbd, 0xf5, 0x81, 0xd1, 0xe1, 0x3a, 0xa5, 0x37, 0xb0,
  0x3d, 0x91, 0xea, 0xfd, 0xfd, 0xb3, 0x04, 0xf5, 0x0d, 0x84, 0xf5, 0xbf,
  0x0d, 0xe5, 0x0f, 0x81, 0x05, 0x20, 0xda, 0xf3, 0x33, 0xc8, 0xff, 0xd5,
  0x37, 0xfb, 0x06, 0xcd, 0x16, 0xfa, 0xef, 0xec, 0x09, 0x30, 0xef, 0x0d,
  0x54, 0x12, 0xdd, 0x23, 0x1e, 0x30, 0xef, 0xe4, 0xed, 0xd2, 0xf5, 0xed,
  0xce, 0xbb, 0xbc, 0x0f, 0xa6, 0xde, 0x0e, 0x18, 0xf7, 0xcd, 0xc8, 0x3a,
  0x1f, 0xf0, 0x08, 0x81, 0xeb, 0xf1, 0xb6, 0x02, 0x28, 0x21, 0xd3, 0xfa,
  0xce, 0xe7, 0x0e, 0x07, 0xd7, 0xeb, 0x2f, 0xe0, 0x0b, 0xf0, 0x32, 0x16,
  0xf2, 0x32, 0xcc, 0xc6, 0xe9, 0x13, 0xba, 0x1e, 0xd4, 0xea, 0x15, 0xfc,
  0xf1, 0x2a, 0xf5, 0xe5, 0x32, 0x07, 0xc3, 0x32, 0xd5, 0x3f, 0x0b, 0x0f,
  0x89, 0x1d, 0xef, 0x14, 0xa9, 0x15, 0x42, 0x3c, 0xb6, 0x3b, 0xcf, 0x8c,
  0xbd, 0xdd, 0xd4, 0x06, 0x9d, 0xcb, 0xa8, 0xfe, 0x1e, 0x81, 0xff, 0xff,
  0x04, 0x00, 0x00, 0x00, 0x80, 0x07, 0x00, 0x00, 0x16, 0x1b, 0xde, 0x16,
  0xff, 0x05, 0xc7, 0x18, 0x19, 0x39, 0xb5, 0xf7, 0x06, 0x29, 0x30, 0x02,
  0xd8, 0xbe, 0xce, 0x06, 0x22, 0xf8, 0x17, 0x05, 0xed, 0x81, 0x0b, 0xed,
  0x0f, 0xf0, 0x05, 0x09, 0x1a, 0xb6, 0xe9, 0xea, 0xd1, 0xfa, 0xe7, 0x08,
  0x37, 0xbd, 0x15, 0xf1, 0xf8, 0x01, 0xa4, 0x07, 0x15, 0xe3, 0x24, 0xe8,
  0xef, 0x00, 0xbf, 0xfe, 0xe1, 0x11, 0x24, 0x0e, 0x1e, 0x17, 0x15, 0x0b,
  0xc6, 0x5d, 0x57, 0xe2, 0xfd, 0x21, 0xdc, 0xfb, 0xcf, 0x08, 0xfd, 0xef,
  0xcf, 0x11, 0xaf, 0xe7, 0x18, 0xaf, 0x10, 0xd8, 0x26, 0xec, 0xaf, 0xe0,
  0x17, 0x04, 0x1a, 0xf8, 0x27, 0x0b, 0x0e, 0xf7, 0xd6, 0xca, 0xe5, 0xf1,
  0x15, 0xe6, 0x32, 0xf3, 0xfe, 0x85, 0xeb, 0xf6, 0x23, 0xea, 0xef, 0xdf,
  0x24, 0x23, 0x1a, 0xfc, 0x59, 0xfc, 0xef, 0x00, 0xed, 0xc9, 0x29, 0x10,
  0xde, 0x00, 0xd4, 0x14, 0x1c, 0x17, 0x08, 0xf3, 0xcd, 0x0b, 0x0a, 0xf5,
  0x0d, 0x46, 0xf9, 0x06, 0xdd, 0xf7, 0xb5, 0x06, 0x01, 0x02, 0x03, 0x01,
  0x05, 0x0d, 0xea, 0xf6, 0xdc, 0xe9, 0x48, 0xea, 0xdb, 0x06, 0x37, 0xfc,
  0x10, 0xb4, 0x21, 0xf0, 0xf9, 0x01, 0x81, 0xf3, 0x24, 0xc6, 0x17, 0x08,
  0x2a, 0x02, 0x91, 0xef, 0xfc, 0xe6, 0x16, 0x06, 0x17, 0xf7, 0x77, 0x07,
  0xc7, 0xc7, 0x2d, 0x06, 0x04, 0xf4, 0x32, 0xf9, 0xed, 0xc7, 0x1e, 0xed,
  0xe5, 0xdc, 0x8c, 0xed, 0xee, 0xe5, 0x00, 0xfc, 0xcc, 0xf5, 0xca, 0xf5,
  0x03, 0x02, 0xdb, 0x00, 0xf7, 0xfc, 0xc2, 0xe6, 0x13, 0x28, 0xea, 0xea,
  0x2c, 0xee, 0x8e, 0xe5, 0x0a, 0x24, 0x04, 0xea, 0x40, 0xfd, 0x57, 0xe8,
  0x13, 0xc8, 0x03, 0xef, 0x14, 0xee, 0x5b, 0xf9, 0x23, 0xe3, 0x33, 0x08,
  0xf0, 0xf9, 0xd3, 0xf9, 0xfd, 0xd1, 0x3f, 0x02, 0x24, 0xf9, 0x4e, 0xfb,
  0x07, 0xe1, 0x31, 0x0b, 0x1e, 0xea, 0x0f, 0x0e, 0x24, 0x0e, 0x15, 0x03,
  0x15, 0xfc, 0xd2, 0xfa, 0x11, 0x0e, 0xe4, 0x0b, 0x2f, 0x0d, 0x25, 0x05,
  0xed, 0xe5, 0xe1, 0x0b, 0x32, 0x06, 0x02, 0xf9, 0xdb, 0xe0, 0x15, 0x07,
  0x03, 0xf5, 0xf7, 0xfb, 0x0d, 0xf4, 0x05, 0xfe, 0xfc, 0xf0, 0xde, 0xff,
  0x0f, 0xb8, 0xea, 0xfd, 0xf9, 0x04, 0x81, 0xf0, 0xfe, 0xce, 0xfb, 0xf9,
  0xf9, 0x05, 0xa5, 0xf6, 0xd8, 0x0d, 0x1f, 0xf4, 0xea, 0x01, 0x3d, 0x03,
  0xdd, 0x02, 0x36, 0xf9, 0xfc, 0xfc, 0x18, 0x02, 0xf9, 0x02, 0x06, 0xff,
  0xed, 0xe8, 0x92, 0xf1, 0x1b, 0xe2, 0xed, 0x00, 0xe5, 0xec, 0xfd, 0x01,
  0x12, 0xe9, 0xee, 0x02, 0xf9, 0xe4, 0x56, 0xeb, 0xf6, 0xf9, 0xae, 0x0d,
  0x22, 0x16, 0xe9, 0x03, 0xf7, 0xd7, 0x11, 0x0d, 0x14, 0x10, 0xc7, 0x1a,
  0xf4, 0xe2, 0x20, 0x0f, 0x1e, 0xfe, 0x07, 0x06, 0x28, 0xde, 0x19, 0x10,
  0x17, 0x16, 0x3d, 0x16, 0x1c, 0xea, 0xfa, 0x22, 0x15, 0x11, 0x11, 0x1b,
  0xf0, 0xbc, 0xae, 0x21, 0xf4, 0x07, 0xdf, 0x1c, 0xe4, 0x81, 0x89, 0x28,
  0xb3, 0x14, 0xff, 0x1b, 0xf1, 0xaf, 0xa2, 0x12, 0xec, 0x1c, 0xf7, 0x1f,
  0xde, 0xae, 0xbe, 0x1a, 0xdc, 0x10, 0xf1, 0x14, 0x06, 0xdd, 0xe7, 0x0a,
  0xd8, 0x05, 0x1a, 0x07, 0x18, 0x22, 0x15, 0xfe, 0x01, 0x0f, 0xf8, 0x11,
  0x04, 0x2d, 0x31, 0x10, 0xfa, 0x1e, 0xc2, 0x08, 0x0c, 0xec, 0x38, 0x0c,
  0x04, 0xff, 0x0c, 0x16, 0x13, 0x08, 0x2a, 0x1b, 0xd1, 0x19, 0xfe, 0x1c,
  0xfd, 0x2a, 0xf7, 0x0f, 0xb2, 0x0c, 0xea, 0x10, 0xe7, 0x1a, 0x08, 0x03,
  0x10, 0x08, 0x7f, 0x0a, 0xf8, 0x06, 0xf8, 0xff, 0xdf, 0x12, 0x7b, 0x03,
  0xe8, 0x13, 0xe9, 0x0a, 0xe6, 0x04, 0x03, 0xf9, 0xe6, 0x0d, 0xf9, 0x01,
  0x05, 0xff, 0xe3, 0xfb, 0x05, 0xeb, 0x19, 0xf3, 0xdf, 0xfd, 0x15, 0xf8,
  0x00, 0xbb, 0x1a, 0xf7, 0xff, 0x06, 0xf4, 0xf0, 0xef, 0xee, 0xff, 0xf8,
  0x01, 0x03, 0xce, 0xf2, 0xe3, 0x05, 0x06, 0x03, 0x08, 0x06, 0xfe, 0x01,
  0xdd, 0x09, 0xe9, 0xfd, 0x00, 0xf9, 0x01, 0xf3, 0xef, 0xe8, 0xed, 0xf0,
  0xf1, 0xf4, 0xcf, 0xf3, 0xe8, 0xe1, 0xfc, 0xff, 0xf2, 0xfc, 0xcb, 0xfd,
  0xec, 0xdf, 0x10, 0xf7, 0xf0, 0xff, 0xa8, 0xf2, 0xde, 0xd4, 0x15, 0xf5,
  0x02, 0x00, 0x97, 0xf9, 0xed, 0xcc, 0xf5, 0xf6, 0xe7, 0x06, 0xfc, 0xf5,
  0x00, 0xea, 0xe8, 0xf9, 0xd6, 0x04, 0x7b, 0xeb, 0xa9, 0x0e, 0xd5, 0x39,
  0x3e, 0x12, 0x71, 0x2f, 0xd2, 0x12, 0xee, 0x37, 0x4b, 0x29, 0x12, 0x29,
  0x08, 0xed, 0xf9, 0x42, 0x0a, 0x27, 0xb9, 0x44, 0x10, 0xd8, 0x19, 0x3e,
  0xba, 0x07, 0xde, 0x32, 0x23, 0xfc, 0x13, 0x4a, 0xee, 0xf3, 0x27, 0x37,
  0x02, 0x26, 0xe5, 0x2d, 0xbb, 0x23, 0x82, 0x42, 0xf4, 0xb4, 0xce, 0x48,
  0xfe, 0x01, 0xd6, 0x44, 0xf7, 0x18, 0xd2, 0x4f, 0xee, 0x28, 0x01, 0x2e,
  0x05, 0x50, 0xe4, 0x49, 0x15, 0x31, 0xc5, 0x36, 0x39, 0x35, 0xf2, 0x38,
  0x47, 0x35, 0xbb, 0x38, 0x37, 0xee, 0x0d, 0x45, 0x65, 0x29, 0x81, 0x48,
  0x11, 0x00, 0x4c, 0x46, 0x37, 0x0c, 0x99, 0x2b, 0x05, 0x24, 0x26, 0x2a,
  0x0f, 0x11, 0x34, 0x27, 0x21, 0x19, 0x12, 0x26, 0xe2, 0x0b, 0x70, 0x49,
  0x49, 0x61, 0xdf, 0x2c, 0x07, 0x28, 0x23, 0x3b, 0xd4, 0x2b, 0xfe, 0x19,
  0x06, 0x30, 0x67, 0x10, 0xcc, 0xd9, 0x1c, 0xfb, 0xe8, 0x00, 0x14, 0x20,
  0x1b, 0xd2, 0x37, 0xf8, 0xe7, 0xf2, 0xdb, 0x12, 0x4b, 0xf7, 0x34, 0x10,
  0x00, 0x10, 0x95, 0xf6, 0xfb, 0xab, 0x34, 0xf9, 0x30, 0x0c, 0x95, 0x1d,
  0xd2, 0x09, 0x10, 0xfa, 0x1e, 0x13, 0xe1, 0x16, 0x0b, 0x4c, 0x2a, 0xfa,
  0x00, 0x00, 0x0a, 0x04, 0x2a, 0x3d, 0x09, 0xf8, 0xfa, 0x13, 0xf0, 0xeb,
  0x28, 0xc8, 0xf8, 0xed, 0xe6, 0x11, 0xfa, 0xf1, 0xf9, 0xcf, 0x0c, 0xf2,
  0xbe, 0x0f, 0x1a, 0x06, 0xce, 0x97, 0x0f, 0x02, 0xf8, 0xf5, 0xe5, 0x04,
  0xd2, 0xaf, 0x29, 0xe3, 0x05, 0xe1, 0x81, 0xfe, 0xf4, 0xde, 0x3a, 0xea,
  0xf5, 0xea, 0xbd, 0xe1, 0xc0, 0x0e, 0x26, 0xef, 0x2f, 0x07, 0xda, 0xfb,
  0xa8, 0xe4, 0xf7, 0xfe, 0x2b, 0xdd, 0xfa, 0xfb, 0xe5, 0x09, 0xee, 0xfe,
  0xfb, 0x03, 0xf9, 0x07, 0xf3, 0x06, 0xcc, 0x09, 0xf7, 0x16, 0x81, 0x11,
  0xec, 0xe7, 0xca, 0x03, 0xea, 0x12, 0xd8, 0x01, 0xd1, 0xc5, 0xd1, 0x0c,
  0x10, 0xfb, 0xd7, 0x04, 0xeb, 0xe5, 0xd0, 0xfe, 0x16, 0xfb, 0x0b, 0x0e,
  0x09, 0x10, 0xc8, 0x08, 0x20, 0xfe, 0x25, 0xff, 0x14, 0x0c, 0xce, 0xf7,
  0x18, 0xf4, 0xdd, 0x00, 0x04, 0xfc, 0xde, 0xfb, 0xeb, 0x09, 0x17, 0xf9,
  0xee, 0xfe, 0x16, 0x0c, 0xb9, 0xfc, 0x44, 0x09, 0xe6, 0x07, 0x0d, 0x02,
  0xc8, 0x0d, 0xeb, 0xfa, 0xd5, 0xe8, 0x0e, 0xf9, 0xd1, 0x03, 0xec, 0xf5,
  0xcc, 0xcc, 0xe4, 0xfa, 0xb6, 0xf7, 0x06, 0xed, 0xd4, 0x00, 0x05, 0xec,
  0xc0, 0x07, 0x09, 0xfb, 0xfd, 0x00, 0xfa, 0xf4, 0xd0, 0x03, 0xdd, 0xff,
  0x06, 0x0a, 0x0a, 0xea, 0xcc, 0xff, 0x1b, 0xfa, 0x05, 0x0b, 0xfa, 0x02,
  0xfb, 0xf8, 0x38, 0xf8, 0x01, 0xe6, 0x10, 0xf5, 0xfc, 0xf3, 0x28, 0xef,
  0x0e, 0xe4, 0xfd, 0xf1, 0xf8, 0xfb, 0x95, 0xed, 0x16, 0xd8, 0xfa, 0xf2,
  0xf1, 0xfa, 0x81, 0xfd, 0x04, 0xf1, 0xf1, 0xe9, 0xeb, 0xfb, 0x38, 0xf2,
  0x01, 0xf1, 0xfc, 0xeb, 0x01, 0xfa, 0x2a, 0xfb, 0x00, 0xe9, 0xf7, 0xef,
  0xf1, 0xfd, 0xf4, 0xee, 0xfb, 0xf3, 0xdd, 0xec, 0xfa, 0xf1, 0x14, 0xef,
  0x00, 0xdd, 0xd7, 0xef, 0xf1, 0xf6, 0x03, 0xf8, 0x03, 0xd5, 0xe1, 0xf8,
  0xf1, 0xf8, 0x1e, 0xed, 0xfc, 0xc8, 0xfe, 0x02, 0x15, 0xf1, 0x29, 0xfd,
  0xff, 0xf0, 0x17, 0xf2, 0x2b, 0xee, 0xed, 0xff, 0x05, 0xec, 0x25, 0xf7,
  0x1e, 0xfb, 0xbc, 0xf6, 0xfa, 0xc2, 0x09, 0xf7, 0x25, 0xed, 0xec, 0xee,
  0xff, 0xd3, 0xf4, 0xfb, 0x00, 0xf5, 0x3a, 0xfd, 0xd4, 0x2c, 0xde, 0xf4,
  0x20, 0xf1, 0xe4, 0xfb, 0xec, 0x1e, 0xe4, 0x00, 0x33, 0xf5, 0xc2, 0xf9,
  0xe3, 0x20, 0xf2, 0xfa, 0x2b, 0xf0, 0x00, 0xf2, 0xe1, 0x2d, 0xf5, 0xfd,
  0x25, 0xfb, 0x06, 0xfd, 0xe6, 0x10, 0x10, 0xf9, 0x0c, 0x00, 0x00, 0xfa,
  0xf2, 0x0f, 0x01, 0xfc, 0x07, 0xf3, 0x35, 0xf1, 0xfa, 0x2e, 0x08, 0xf7,
  0x0e, 0x00, 0x1e, 0xf3, 0xea, 0x16, 0xfa, 0x03, 0x0d, 0x05, 0xee, 0xfd,
  0xd6, 0x25, 0xfb, 0xf7, 0xf5, 0xff, 0xf9, 0x00, 0xfa, 0x34, 0xf2, 0x01,
  0x20, 0xf3, 0xeb, 0xf9, 0x16, 0x52, 0xd8, 0xf6, 0x06, 0xfd, 0xb3, 0xf6,
  0x12, 0x2f, 0x1a, 0xf5, 0x0f, 0xfe, 0x81, 0xfb, 0x1b, 0xfa, 0x1c, 0xf3,
  0x16, 0xff, 0xee, 0x01, 0x0b, 0x23, 0x13, 0x06, 0xf6, 0xf2, 0x03, 0xf7,
  0xff, 0x16, 0x11, 0xfa, 0xf1, 0xf8, 0x1a, 0xfe, 0x1b, 0xc2, 0xf0, 0x07,
  0x10, 0x04, 0xf9, 0x06, 0x69, 0xb6, 0xd4, 0xf5, 0x3d, 0x00, 0x28, 0x27,
  0x4d, 0xc2, 0xea, 0xfd, 0x2d, 0x2a, 0x04, 0x0f, 0x2a, 0xde, 0xd7, 0x11,
  0x1a, 0x0b, 0xfe, 0x26, 0x26, 0x31, 0xe1, 0xed, 0xfb, 0x0d, 0xe6, 0x0f,
  0x38, 0x7f, 0x03, 0x05, 0x36, 0xf8, 0xcc, 0xfe, 0x58, 0x58, 0xfd, 0xeb,
  0x14, 0xfc, 0xbc, 0xde, 0x0d, 0x28, 0xf0, 0xe2, 0xfe, 0x01, 0xf8, 0x04,
  0x0c, 0xd4, 0xfb, 0xd4, 0x00, 0xf7, 0xf1, 0x03, 0xf2, 0xc9, 0x26, 0xba,
  0xd8, 0xf1, 0x08, 0xf9, 0xf9, 0xdb, 0x21, 0xbc, 0xb0, 0xdb, 0xb7, 0xc1,
  0xe5, 0x32, 0x2a, 0xd2, 0xdc, 0xfd, 0xe2, 0xbf, 0xc9, 0x66, 0x51, 0xd1,
  0xb3, 0xf2, 0x2e, 0xd6, 0xd3, 0x3d, 0x34, 0xce, 0xcd, 0xc6, 0x1b, 0xc4,
  0xd9, 0xec, 0x40, 0xde, 0xe5, 0xe5, 0x9a, 0xf0, 0x1b, 0x25, 0x18, 0xf8,
  0x3a, 0xfc, 0x5e, 0xf6, 0xd0, 0x35, 0xf0, 0x03, 0x1e, 0xf7, 0x49, 0x01,
  0xc3, 0x00, 0x07, 0x06, 0x17, 0x08, 0x1a, 0xee, 0xb6, 0x04, 0xf0, 0xf0,
  0x07, 0x00, 0xdb, 0x0a, 0xc2, 0x9c, 0xde, 0x0c, 0xf7, 0x06, 0xae, 0x02,
  0xbb, 0x84, 0xe0, 0x0a, 0xe0, 0x02, 0xe1, 0xf7, 0xac, 0xbc, 0x09, 0xf5,
  0xdf, 0xff, 0xea, 0x02, 0xcb, 0x0c, 0x03, 0x13, 0xeb, 0xfa, 0xa2, 0x02,
  0xdf, 0x4a, 0x0c, 0x11, 0xdc, 0x13, 0x81, 0xfd, 0x14, 0x0f, 0x1b, 0x0c,
  0xe7, 0x14, 0xcf, 0x06, 0x30, 0x19, 0x07, 0x0d, 0x09, 0x09, 0x13, 0x00,
  0x44, 0xe0, 0x0f, 0x04, 0x15, 0x12, 0x34, 0x0c, 0x24, 0x8f, 0xda, 0x06,
  0x1e, 0xff, 0x49, 0xf6, 0x00, 0xb8, 0xb1, 0xfb, 0xf6, 0xf8, 0x28, 0xfc,
  0xf4, 0x04, 0xaa, 0xff, 0x07, 0x0a, 0x4a, 0xf6, 0x0e, 0x8f, 0x5b, 0xe9,
  0x00, 0x27, 0xc6, 0xf5, 0x19, 0x3a, 0x38, 0xff, 0x0f, 0x26, 0xd7, 0xfc,
  0x2a, 0x06, 0x0e, 0x10, 0x25, 0x0b, 0xb8, 0x06, 0x2f, 0xdd, 0xba, 0x12,
  0x15, 0x0e, 0x0d, 0x1f, 0xe4, 0xa4, 0xad, 0x1c, 0x26, 0xe1, 0x3b, 0xfa,
  0x23, 0xa3, 0x19, 0x04, 0xf2, 0xea, 0xf1, 0x15, 0x3e, 0xa1, 0x0a, 0x17,
  0xe0, 0xfd, 0x94, 0x13, 0x2a, 0xdf, 0x2d, 0xfc, 0xf2, 0x23, 0x98, 0x01,
  0x36, 0x7f, 0xbd, 0x14, 0x09, 0x01, 0xd4, 0x17, 0xeb, 0x39, 0xba, 0xf6,
  0x02, 0x1c, 0x09, 0x25, 0xcd, 0x36, 0xff, 0x10, 0xcd, 0x03, 0x2c, 0x17,
  0xd7, 0xa1, 0xc9, 0x01, 0xb8, 0xfc, 0xe6, 0x24, 0x27, 0xef, 0xc6, 0xf1,
  0xe9, 0xf6, 0xf0, 0x18, 0x2a, 0xca, 0xbe, 0x05, 0xf5, 0xf7, 0x13, 0x10,
  0xd8, 0x9e, 0x0f, 0xf9, 0xf3, 0x06, 0x43, 0x19, 0xf6, 0x0c, 0xaf, 0xea,
  0xd1, 0x00, 0xe6, 0xf0, 0xd6, 0xef, 0xa9, 0xf8, 0xf9, 0xfe, 0xd4, 0xf8,
  0xe7, 0x07, 0xe0, 0xe7, 0x13, 0xec, 0x0e, 0xe8, 0xe9, 0x19, 0xef, 0xfc,
  0x36, 0xec, 0x00, 0xf2, 0xf7, 0x0e, 0xf3, 0xea, 0xff, 0x02, 0xa6, 0xed,
  0xc6, 0xbc, 0x26, 0x0a, 0xcc, 0xf5, 0xc6, 0xf0, 0xc4, 0xd4, 0x33, 0xf6,
  0xcd, 0xea, 0x0c, 0x05, 0xda, 0x0b, 0x1b, 0x05, 0xfd, 0xfd, 0x23, 0xef,
  0x02, 0xdf, 0x1c, 0x02, 0x1d, 0x16, 0x4d, 0x07, 0xdc, 0x04, 0xe8, 0xeb,
  0x21, 0x06, 0x24, 0xf4, 0xcb, 0x4d, 0xd5, 0xe8, 0x25, 0xf8, 0xd5, 0xfa,
  0xd5, 0xec, 0xe1, 0xed, 0xfb, 0xf4, 0xe3, 0xe2, 0xfd, 0x81, 0xe8, 0xf3,
  0x17, 0xfc, 0x22, 0xe9, 0x07, 0x0a, 0xb6, 0xeb, 0xeb, 0x1c, 0x17, 0xea,
  0xf3, 0x2d, 0xd7, 0xea, 0xd9, 0x1a, 0xe4, 0xf6, 0x37, 0x14, 0xa0, 0xf6,
  0xaf, 0xed, 0x1c, 0xd7, 0x16, 0xd7, 0xa0, 0xfa, 0x93, 0xd7, 0x36, 0xca,
  0x20, 0x9a, 0x05, 0xc2, 0xcf, 0xf7, 0x46, 0xcc, 0x34, 0x13, 0xe6, 0xc1,
  0x43, 0xe6, 0x2d, 0xd3, 0x43, 0x3f, 0xbe, 0xc3, 0x3c, 0xec, 0x1a, 0xd5,
  0x71, 0x46, 0xc0, 0xdb, 0x7e, 0xe6, 0x0d, 0xe0, 0x4b, 0x1f, 0xc1, 0xee,
  0x7f, 0xf2, 0xea, 0xe5, 0x41, 0x06, 0x08, 0xd6, 0x59, 0xef, 0xde, 0xf6,
  0x39, 0x6f, 0x09, 0xc7, 0x2b, 0xe2, 0xae, 0xe8, 0x0e, 0x0b, 0xc2, 0xec,
  0x2c, 0xf4, 0x9d, 0xf8, 0x17, 0xe0, 0x9c, 0xf1, 0x36, 0xcd, 0xb0, 0xcb,
  0xf9, 0x0b, 0x89, 0xdc, 0xe5, 0xd1, 0xc7, 0xd5, 0xb1, 0x28, 0xbf, 0x08,
  0xd7, 0xd5, 0xdc, 0xf5, 0xee, 0x1f, 0xfa, 0x0d, 0xd1, 0xcf, 0xf4, 0xf3,
  0x2a, 0x4c, 0xcf, 0xf3, 0xfc, 0xd1, 0xcd, 0xc9, 0x95, 0x1b, 0x14, 0xf5,
  0xec, 0xfd, 0x25, 0x09, 0xa3, 0x24, 0x12, 0x10, 0xfe, 0x0b, 0xe7, 0x13,
  0xef, 0x06, 0xf8, 0x0b, 0x47, 0xe6, 0xc1, 0x20, 0xe8, 0xda, 0x29, 0x0f,
  0x06, 0xec, 0xcf, 0x1f, 0x37, 0xd9, 0x5d, 0xff, 0xd3, 0xe6, 0x12, 0x0d,
  0x1b, 0xd6, 0x3d, 0x11, 0xd6, 0x18, 0x81, 0x0d, 0x0d, 0xd7, 0x22, 0x05,
  0xdc, 0xec, 0x81, 0x1c, 0x00, 0xf6, 0xc7, 0x0c, 0xe0, 0x09, 0x1e, 0x12,
  0xc6, 0x47, 0xa2, 0xf7, 0xfa, 0x06, 0xff, 0xf5, 0x03, 0x4b, 0xae, 0xfe,
  0x19, 0xe0, 0x06, 0x0f, 0xf5, 0x3b, 0xdb, 0x10, 0x0b, 0x0b, 0xf9, 0x16,
  0x00, 0xe5, 0xde, 0x1e, 0x14, 0x0b, 0xb1, 0xf8, 0xfe, 0xef, 0x0a, 0x1f,
  0xb7, 0xe6, 0xfd, 0xf9, 0xed, 0x02, 0xfb, 0x22, 0xa4, 0xf6, 0x45, 0x09,
  0x43, 0x41, 0xb4, 0x0c, 0xc2, 0xf6, 0x6b, 0xfe, 0xaa, 0x88, 0xff, 0xff,
  0x04, 0x00, 0x00, 0x00, 0x80, 0x0c, 0x00, 0x00, 0xd6, 0x9e, 0x2a, 0x3e,
  0x04, 0xad, 0x56, 0x3d, 0x14, 0x26, 0x75, 0x3d, 0x59, 0x07, 0x39, 0x3e,
  0x9b, 0xd9, 0x54, 0x3e, 0x8f, 0xf3, 0x47, 0x3e, 0xff, 0x20, 0x80, 0x3d,
  0x0e, 0xff, 0x81, 0x3d, 0x0e, 0x1e, 0x27, 0x3e, 0x42, 0x49, 0x27, 0x3e,
  0x36, 0xc8, 0x32, 0x3d, 0xee, 0x44, 0xd8, 0x3d, 0x4b, 0x36, 0xb5, 0x3d,
  0x5e, 0x11, 0x06, 0x3e, 0x4a, 0x88, 0xa8, 0x3d, 0x01, 0xa6, 0xf7, 0x3d,
  0xca, 0x14, 0xa1, 0x3d, 0xa1, 0x0b, 0x08, 0x3d, 0x26, 0xd5, 0x8a, 0x3d,
  0x69, 0x62, 0x02, 0x3e, 0xd2, 0xbe, 0x10, 0x3a, 0x66, 0x20, 0xe3, 0x3d,
  0x30, 0x62, 0xaf, 0xbd, 0xa3, 0x8f, 0x62, 0xbd, 0x55, 0x27, 0x6c, 0xbe,
  0xa0, 0x0a, 0x21, 0xbe, 0x93, 0xcd, 0x83, 0xbe, 0xd6, 0x57, 0x96, 0xbe,
  0x57, 0x7a, 0x3b, 0xbe, 0xe4, 0x96, 0x0f, 0xbe, 0x6f, 0xd7, 0xda, 0x3c,
  0x5e, 0x4f, 0x3e, 0xbd, 0x09, 0x2c, 0x88, 0x3d, 0xaf, 0x4e, 0xc3, 0x3c,
  0x32, 0xdc, 0xf6, 0xbc, 0x50, 0xb9, 0xb9, 0x3d, 0x91, 0x3e, 0x98, 0x3c,
  0x7b, 0x11, 0xdc, 0x3d, 0xde, 0xb9, 0x1a, 0x3d, 0x6b, 0x88, 0x9e, 0xbd,
  0xe0, 0xff, 0x93, 0xbd, 0xb4, 0xb3, 0x8c, 0xbe, 0x9d, 0x8f, 0x7c, 0xbe,
  0x99, 0x13, 0x3d, 0xbe, 0x03, 0x22, 0x92, 0xbe, 0x68, 0xed, 0xd1, 0xbd,
  0x09, 0x66, 0xad, 0x3d, 0xe6, 0xa9, 0x1f, 0x3d, 0x0a, 0x7c, 0x43, 0x3e,
  0xc3, 0x7a, 0x80, 0x3e, 0xc8, 0xaf, 0x37, 0x3e, 0xb0, 0x3a, 0x36, 0x3e,
  0xa2, 0x8d, 0xc6, 0x3d, 0xf2, 0xb7, 0x1d, 0x3e, 0xaa, 0x03, 0x7b, 0x3d,
  0x31, 0xa3, 0xd9, 0x3d, 0x90, 0xb2, 0x37, 0x3c, 0x28, 0xb6, 0x8a, 0xbd,
  0xa6, 0xea, 0x85, 0xbe, 0x46, 0x06, 0x8e, 0xbe, 0xeb, 0xcf, 0xc0, 0xbe,
  0xfe, 0x71, 0x03, 0xbf, 0xe1, 0x34, 0x20, 0xbf, 0xe4, 0xb4, 0x2d, 0xbf,
  0x1c, 0xa9, 0x14, 0xbf, 0xf1, 0xde, 0x98, 0xbe, 0x11, 0x5e, 0xcf, 0x3c,
  0x83, 0xd0, 0x22, 0x3d, 0xa1, 0xa3, 0x1d, 0x3e, 0xa6, 0x9a, 0xe7, 0xbd,
  0xe4, 0x76, 0x0a, 0xbe, 0x6a, 0xdc, 0x0d, 0xbe, 0x37, 0xc1, 0x66, 0xbe,
  0x12, 0xed, 0x5a, 0xbe, 0xc5, 0x7b, 0x6f, 0x3c, 0x11, 0xb9, 0x94, 0x3c,
  0x8f, 0x5a, 0x76, 0xbe, 0xd8, 0x65, 0xdd, 0xbe, 0x28, 0x5f, 0x05, 0xbf,
  0xd6, 0x27, 0xb6, 0xbe, 0xc7, 0x3f, 0xdd, 0xbd, 0x72, 0xf7, 0xaf, 0xbd,
  0x36, 0x08, 0x0c, 0x3b, 0x96, 0x05, 0xb4, 0x3d, 0xc8, 0xd4, 0x58, 0x3e,
  0x4c, 0x41, 0x43, 0x3e, 0x6b, 0x26, 0xbf, 0x3d, 0x1e, 0x29, 0x5b, 0x3e,
  0x4c, 0x58, 0x12, 0x3e, 0x82, 0x5c, 0x1b, 0x3e, 0xaf, 0x6a, 0x54, 0xbd,
  0x9f, 0x63, 0x99, 0x3d, 0x1c, 0xe7, 0xa6, 0xbd, 0x99, 0x69, 0x06, 0xbe,
  0xad, 0xfd, 0x8f, 0xbe, 0x73, 0xe4, 0x0c, 0xbf, 0x07, 0xb8, 0x01, 0xbf,
  0x1c, 0x31, 0x0c, 0xbf, 0x22, 0x52, 0x30, 0xbe, 0x65, 0x33, 0x81, 0x3c,
  0x69, 0xe9, 0x53, 0xbe, 0xe6, 0x87, 0x8d, 0xbe, 0x91, 0x9f, 0x77, 0xbe,
  0x83, 0xa4, 0x32, 0xbe, 0x96, 0xbd, 0xaf, 0xbc, 0x8b, 0x84, 0x4f, 0x3e,
  0xa8, 0x27, 0xc4, 0x3e, 0x99, 0x29, 0xac, 0x3e, 0xfb, 0x7b, 0xc0, 0x3e,
  0x5d, 0xd3, 0x67, 0x3e, 0x76, 0x02, 0x16, 0x3e, 0xa5, 0xd6, 0x8a, 0x3e,
  0x1a, 0x55, 0x8e, 0x3d, 0xab, 0xc3, 0x80, 0xbe, 0x63, 0xdf, 0x59, 0xbe,
  0xa0, 0x78, 0x57, 0xbe, 0x53, 0x96, 0x33, 0xbe, 0xe0, 0xac, 0xae, 0xbe,
  0x8a, 0x7d, 0x4c, 0xbe, 0x17, 0x46, 0xc7, 0x3d, 0x1e, 0x3f, 0x73, 0x3e,
  0xb0, 0xea, 0x14, 0x3e, 0x0c, 0x88, 0x30, 0x3e, 0xfa, 0x65, 0xa0, 0x3e,
  0x81, 0x76, 0x5f, 0x3e, 0x45, 0x75, 0x92, 0x3e, 0xf3, 0x06, 0x99, 0x3b,
  0xf9, 0x29, 0x60, 0xbe, 0x4b, 0xd5, 0x08, 0xbf, 0xad, 0x24, 0x6a, 0xbf,
  0xc0, 0x75, 0x68, 0xbf, 0x7e, 0x33, 0x25, 0xbf, 0x1c, 0xe1, 0xbc, 0xbe,
  0x8a, 0x0d, 0x4e, 0xbe, 0x0d, 0xd0, 0x58, 0x3d, 0x85, 0xfe, 0xb0, 0x3e,
  0xae, 0x9a, 0xcc, 0x3e, 0x29, 0x5e, 0xe4, 0x3e, 0xb9, 0x32, 0xe7, 0x3e,
  0x14, 0xe8, 0xdb, 0x3e, 0xc7, 0x8c, 0x25, 0x3d, 0x69, 0xf8, 0x77, 0xbe,
  0x4f, 0x8b, 0x83, 0xbf, 0xa9, 0x0e, 0xc2, 0xbf, 0x02, 0x04, 0x7c, 0xbf,
  0xda, 0xc1, 0x82, 0xbe, 0x24, 0x42, 0xc2, 0xbe, 0x25, 0x44, 0xd5, 0xbe,
  0x4d, 0x10, 0x30, 0xbd, 0x6a, 0x10, 0x87, 0x3e, 0x28, 0xdd, 0xd4, 0x3e,
  0x85, 0xfa, 0xcb, 0x3e, 0x9b, 0x53, 0xf7, 0x3e, 0x87, 0x8a, 0xf0, 0x3e,
  0x6a, 0xae, 0x93, 0x3e, 0xae, 0xc5, 0xf7, 0x3d, 0x91, 0x3d, 0xa8, 0xbe,
  0xe7, 0x52, 0xfe, 0xbe, 0xd6, 0x7e, 0x3a, 0xbf, 0x1a, 0x11, 0x6b, 0xbe,
  0xe3, 0xd8, 0x01, 0xbe, 0xf2, 0xce, 0x53, 0xbe, 0x2c, 0x5d, 0x01, 0x3c,
  0x49, 0x24, 0x1e, 0x3e, 0xc9, 0xe7, 0xab, 0x3d, 0xd8, 0x8a, 0x83, 0x3d,
  0x06, 0xdf, 0xb0, 0x3d, 0xa6, 0x68, 0x47, 0x3e, 0x29, 0x67, 0xd3, 0x3d,
  0x39, 0x6f, 0x4b, 0xbd, 0x52, 0xdd, 0x30, 0xbe, 0xd6, 0x0f, 0x10, 0xbf,
  0x27, 0xde, 0x0d, 0xbf, 0x3f, 0x4f, 0x89, 0xbe, 0xa3, 0xdf, 0x2c, 0xbe,
  0x00, 0x80, 0xd2, 0xbc, 0x39, 0x0e, 0x1e, 0x3e, 0x87, 0x0d, 0x26, 0x3e,
  0x29, 0x5d, 0xda, 0x3c, 0xc1, 0x62, 0xb2, 0x3d, 0x3a, 0xca, 0x1c, 0x3d,
  0xc5, 0xc4, 0x21, 0xbe, 0x84, 0x48, 0x81, 0xbe, 0xca, 0x6a, 0x4d, 0xbe,
  0x4c, 0x24, 0x64, 0xbe, 0xea, 0xac, 0x82, 0xbe, 0xe2, 0x9b, 0xb9, 0xbe,
  0xe9, 0x51, 0x9c, 0xbe, 0x9d, 0x4c, 0xfd, 0xbd, 0x6e, 0xdc, 0x02, 0x3d,
  0x7f, 0x31, 0x1f, 0x3e, 0xe9, 0x84, 0x02, 0x3e, 0xa6, 0x66, 0xb6, 0x3d,
  0x10, 0x2f, 0xbf, 0x3b, 0x53, 0x0b, 0x13, 0xbd, 0xf1, 0xc3, 0x42, 0x3d,
  0x76, 0xed, 0x0c, 0xbe, 0x22, 0x15, 0x52, 0xbd, 0xcd, 0x38, 0x99, 0x3d,
  0x4d, 0x7e, 0x82, 0x3d, 0x1e, 0x60, 0x3f, 0x3e, 0xb8, 0xed, 0xa3, 0x3e,
  0x32, 0x49, 0xaf, 0x3e, 0xbe, 0x2f, 0x97, 0x3e, 0x53, 0x0b, 0x92, 0x3e,
  0xfc, 0xd8, 0xf5, 0x3d, 0x29, 0x3b, 0x85, 0x3d, 0x7b, 0xb9, 0x89, 0xbd,
  0xcc, 0xa6, 0xc2, 0xbd, 0xd8, 0x5b, 0x39, 0xbe, 0x7e, 0xc6, 0x8a, 0xbe,
  0x0e, 0xa4, 0x27, 0xbe, 0xd3, 0x96, 0x4f, 0x3c, 0x4b, 0x1a, 0x02, 0xbe,
  0xfd, 0xe1, 0x3d, 0xbe, 0x7f, 0x27, 0x24, 0xbe, 0xc0, 0xf1, 0x97, 0xbd,
  0xb4, 0xb9, 0x44, 0xbc, 0x7f, 0xae, 0xcf, 0xbc, 0xae, 0x05, 0x34, 0xbe,
  0x95, 0x37, 0x7e, 0xbe, 0xde, 0x24, 0xb6, 0xbe, 0xe1, 0x3c, 0xeb, 0xbe,
  0xd9, 0x5a, 0x27, 0xbf, 0xb6, 0x43, 0x51, 0xbf, 0x08, 0x01, 0x25, 0xbf,
  0x16, 0xa4, 0x64, 0xbf, 0xfb, 0x36, 0x75, 0xbf, 0x28, 0xff, 0x04, 0xbf,
  0x19, 0xa7, 0x05, 0x3d, 0x0d, 0xcf, 0xcd, 0xbd, 0x27, 0x03, 0x01, 0xbc,
  0xec, 0x7e, 0x9a, 0x3c, 0xf8, 0xdc, 0x11, 0x3c, 0x53, 0x2c, 0xed, 0xbc,
  0x7f, 0x5c, 0x23, 0x3c, 0xf4, 0xe6, 0x60, 0xbe, 0x29, 0x82, 0xc2, 0xbd,
  0x3e, 0xa9, 0x8c, 0xbd, 0xde, 0xea, 0x8b, 0x3d, 0x05, 0x0c, 0xd3, 0x3d,
  0xc7, 0x8c, 0x04, 0x3c, 0xf8, 0xb7, 0xf9, 0x3d, 0xb9, 0xe5, 0x53, 0x3e,
  0x7a, 0x44, 0x7f, 0xbd, 0x7c, 0x6a, 0x5f, 0xbe, 0x45, 0xf7, 0xa6, 0xbe,
  0x2e, 0x08, 0xe8, 0xbe, 0x10, 0x19, 0x81, 0xbe, 0xb4, 0x0e, 0x67, 0xbd,
  0xb7, 0x6e, 0x9e, 0x3c, 0xf3, 0x89, 0x9f, 0x3e, 0xbf, 0x09, 0xe3, 0x3e,
  0xf2, 0x5e, 0xff, 0x3e, 0x92, 0x08, 0xda, 0x3e, 0x4c, 0xcb, 0x6f, 0x3e,
  0x68, 0xd4, 0x73, 0x3e, 0xae, 0x0d, 0x9f, 0x3d, 0x20, 0x99, 0xd8, 0x3c,
  0x41, 0x4d, 0xd1, 0xbd, 0x41, 0x2d, 0x2a, 0x3e, 0x59, 0x32, 0xfc, 0x3d,
  0x8c, 0x4a, 0x81, 0x3e, 0xe2, 0x64, 0x2b, 0x3e, 0x15, 0x49, 0x23, 0x3e,
  0xc5, 0x79, 0x8e, 0xbc, 0xbf, 0x00, 0x80, 0xbe, 0xe8, 0x70, 0xd0, 0xbe,
  0x9c, 0xb3, 0xd2, 0xbe, 0x4c, 0xab, 0x2d, 0xbe, 0x0c, 0xf9, 0x0a, 0xbe,
  0x77, 0x34, 0xaf, 0xbd, 0xbe, 0xc9, 0x90, 0xbb, 0x26, 0x46, 0x50, 0xbe,
  0xf6, 0x30, 0x97, 0xbe, 0xc3, 0x17, 0xa1, 0xbe, 0xb5, 0x7e, 0xe9, 0xbc,
  0x95, 0xa5, 0x5f, 0x3d, 0x4e, 0x46, 0x60, 0x3c, 0xe2, 0x99, 0x86, 0xba,
  0x79, 0xbd, 0x5b, 0x3d, 0x36, 0xe8, 0x5d, 0x3e, 0x21, 0x0e, 0x0d, 0xbc,
  0x6f, 0x91, 0x3a, 0x3e, 0x91, 0x83, 0xbf, 0x3d, 0xb5, 0xbd, 0x47, 0x3e,
  0xff, 0x18, 0xf5, 0x3d, 0xf0, 0xf2, 0x11, 0x3d, 0x64, 0xf0, 0x97, 0x3d,
  0x54, 0xa0, 0x40, 0x3e, 0x8f, 0x94, 0x6c, 0x3e, 0xd2, 0x03, 0xb3, 0x3e,
  0xf2, 0x5f, 0x7f, 0x3e, 0x9e, 0xa2, 0x30, 0x3e, 0x29, 0x99, 0x4e, 0xbb,
  0xb0, 0x8a, 0x77, 0xbd, 0xcf, 0xe4, 0x18, 0xbd, 0xef, 0x6b, 0x05, 0xbe,
  0x8f, 0xc3, 0x32, 0xbd, 0x5a, 0x94, 0x99, 0xbc, 0xfc, 0xb1, 0xf4, 0x3c,
  0xa0, 0x1b, 0x92, 0x3b, 0xb5, 0x4d, 0xaa, 0x3d, 0x32, 0xa0, 0xc1, 0x3d,
  0x60, 0xa7, 0x97, 0x3d, 0x40, 0x9d, 0xb9, 0x3a, 0x37, 0xd6, 0xc6, 0x3c,
  0x79, 0xb5, 0x57, 0xbd, 0x39, 0xc9, 0x8e, 0x3b, 0xce, 0x37, 0x25, 0xbc,
  0xb1, 0x83, 0xe9, 0x3d, 0x36, 0x8a, 0xc9, 0xbb, 0x43, 0xe1, 0x94, 0x3d,
  0x24, 0x4a, 0xa7, 0x3b, 0xf9, 0xb4, 0xc3, 0x3c, 0x2d, 0x32, 0x38, 0x3c,
  0xa7, 0xc7, 0x81, 0xbc, 0xb9, 0x95, 0x41, 0xbd, 0x46, 0xc8, 0x1f, 0xbd,
  0x13, 0xbb, 0x1f, 0x3d, 0x6b, 0x88, 0xa3, 0x3d, 0xea, 0xe8, 0xda, 0xba,
  0x54, 0x0e, 0xe2, 0x3d, 0x2d, 0x95, 0x9d, 0xbd, 0x99, 0x68, 0x48, 0xbd,
  0x7b, 0x5a, 0x8f, 0x3d, 0x62, 0xa0, 0x03, 0xbd, 0x17, 0xa2, 0x1c, 0xbb,
  0xe1, 0xf9, 0x83, 0xbd, 0x60, 0x81, 0xb6, 0xbd, 0x66, 0x52, 0x9e, 0xbd,
  0x4b, 0x94, 0xbd, 0xbd, 0x7b, 0xc5, 0x2a, 0x3c, 0x52, 0x3c, 0xa3, 0xbc,
  0x0f, 0x59, 0x02, 0xbe, 0x94, 0xa6, 0xd6, 0xbd, 0xd6, 0xaa, 0x84, 0xbd,
  0xd6, 0xab, 0x40, 0xbe, 0x7b, 0x5c, 0x09, 0xbe, 0xd7, 0xf3, 0x67, 0xbd,
  0x8d, 0x53, 0xa2, 0xbd, 0xc5, 0x98, 0x90, 0xbc, 0xf4, 0x41, 0x27, 0xbd,
  0x55, 0xbb, 0xf9, 0xbd, 0x3f, 0x00, 0x27, 0xbd, 0x4a, 0xf3, 0xc4, 0xbd,
  0x78, 0x57, 0x1e, 0xbe, 0x60, 0x70, 0x24, 0xbc, 0x17, 0x00, 0x72, 0xbe,
  0xb0, 0x9a, 0x08, 0xbd, 0xac, 0x82, 0x17, 0xbe, 0x34, 0xf2, 0xbe, 0xbd,
  0x35, 0x03, 0x0f, 0xbc, 0x4c, 0x80, 0xc1, 0x3b, 0x39, 0x25, 0x35, 0xbd,
  0x9a, 0x6f, 0x89, 0xbd, 0x23, 0xb1, 0xf9, 0xbc, 0x7b, 0xe8, 0xef, 0xbd,
  0x34, 0x07, 0xd8, 0xbd, 0xfd, 0x44, 0x3c, 0xbe, 0x26, 0xa8, 0x38, 0xbe,
  0x46, 0xf9, 0x66, 0xbe, 0xb6, 0x10, 0xa4, 0xbd, 0x8e, 0xb9, 0x48, 0xbe,
  0xde, 0xba, 0x5e, 0xbd, 0x18, 0x53, 0x0f, 0xbd, 0x52, 0x19, 0x50, 0xbe,
  0x51, 0x5d, 0x26, 0xbe, 0x5e, 0xa8, 0x57, 0xbe, 0xe2, 0x08, 0xa8, 0xbe,
  0xa3, 0xf8, 0x95, 0xbe, 0x54, 0x7b, 0x62, 0xbe, 0x08, 0x19, 0x87, 0xbe,
  0x38, 0x99, 0x12, 0xbe, 0x9e, 0xd7, 0x97, 0xbe, 0x7d, 0xc6, 0x8b, 0xbe,
  0x45, 0x22, 0x26, 0xbe, 0x73, 0xf3, 0x84, 0xbe, 0xea, 0x8c, 0xab, 0xbe,
  0x06, 0x21, 0x63, 0xbe, 0x13, 0xab, 0x47, 0xbe, 0x71, 0x7f, 0xb2, 0xbe,
  0x82, 0x82, 0x85, 0xbe, 0x93, 0x13, 0x85, 0xbe, 0x06, 0x65, 0xa7, 0xbe,
  0xb9, 0x94, 0xaa, 0xbe, 0x28, 0x8c, 0x12, 0xbe, 0x88, 0x53, 0x8d, 0xbe,
  0x1a, 0x07, 0x5b, 0xbe, 0x08, 0xf9, 0x68, 0xbe, 0x43, 0x68, 0x0f, 0xbe,
  0xa0, 0x86, 0x31, 0xbe, 0xa1, 0x0b, 0x4a, 0xbe, 0xd0, 0x0b, 0x61, 0xbe,
  0x5e, 0x19, 0x96, 0xbe, 0x32, 0xa0, 0xb5, 0xbe, 0xc6, 0xee, 0x82, 0xbe,
  0x9e, 0x38, 0x61, 0xbe, 0xf0, 0xed, 0x81, 0xbe, 0x7c, 0x4a, 0x91, 0xbe,
  0x61, 0x14, 0x13, 0xbe, 0x27, 0x1e, 0x50, 0xbe, 0x69, 0xfc, 0x1a, 0xbd,
  0xd5, 0xdb, 0xe0, 0x3c, 0x61, 0xdc, 0x8d, 0x3d, 0x60, 0x30, 0x3e, 0x3c,
  0xc3, 0x59, 0xc5, 0x3d, 0xa9, 0xcd, 0xdf, 0x3d, 0xdc, 0xcc, 0x80, 0x3c,
  0x75, 0xfe, 0x36, 0x3d, 0x1e, 0xc8, 0x41, 0xbe, 0xb3, 0x05, 0x01, 0xbf,
  0x78, 0x78, 0xed, 0xbe, 0x9b, 0xe5, 0xef, 0xbe, 0x32, 0xa5, 0xb1, 0xbe,
  0x6d, 0xa8, 0x4d, 0xbe, 0xbf, 0x57, 0xb6, 0xbe, 0x16, 0xcd, 0xe4, 0xbd,
  0xfa, 0x1b, 0x1b, 0x3e, 0x97, 0xe8, 0x98, 0x3e, 0x16, 0xe0, 0xf3, 0x3e,
  0x6b, 0xa0, 0xb7, 0x3e, 0x2d, 0xb0, 0x93, 0x3e, 0x6c, 0x18, 0x1c, 0x3e,
  0xb3, 0xef, 0x53, 0x3d, 0xb8, 0x9b, 0x1e, 0x3c, 0x3c, 0x96, 0x9d, 0x3d,
  0x3b, 0xa1, 0x41, 0x3e, 0xbb, 0xa9, 0x27, 0x3c, 0x8f, 0x07, 0x0a, 0xbd,
  0x5c, 0x62, 0xaa, 0xbe, 0xa9, 0xdc, 0xeb, 0xbe, 0x8b, 0xbe, 0xd0, 0xbe,
  0x86, 0xbb, 0xac, 0x3d, 0xc4, 0xfd, 0x05, 0x3e, 0x0e, 0x1b, 0xaa, 0xbc,
  0x84, 0xb0, 0x1f, 0x3e, 0xf1, 0xd5, 0xd8, 0x3d, 0x7b, 0xed, 0x55, 0x3d,
  0x46, 0x83, 0xcf, 0x3c, 0x1b, 0x31, 0x9b, 0xbd, 0x0b, 0xc2, 0x19, 0xbe,
  0xbe, 0x48, 0x16, 0xbe, 0x0f, 0x1d, 0x1f, 0xbe, 0xfd, 0x0b, 0x14, 0xbe,
  0x8d, 0x76, 0x61, 0xbe, 0xf7, 0xcd, 0x21, 0xbe, 0x34, 0x94, 0x7a, 0xbe,
  0xb9, 0x9d, 0x28, 0xbe, 0xd1, 0xd2, 0x3c, 0xbe, 0x40, 0x80, 0x6d, 0x3d,
  0x13, 0x60, 0x46, 0x3e, 0x0f, 0x19, 0xae, 0x3e, 0xd5, 0x90, 0xfe, 0x3e,
  0x9a, 0x26, 0xc5, 0x3e, 0x90, 0x67, 0x12, 0x3e, 0x21, 0xa1, 0x1a, 0xbe,
  0x28, 0x6a, 0xd5, 0xbe, 0xc4, 0xf7, 0xdb, 0xbe, 0x89, 0x49, 0xb5, 0xbe,
  0xad, 0xfc, 0xbe, 0xbe, 0xf4, 0x8e, 0xb8, 0xbe, 0x0f, 0x48, 0x0f, 0xbf,
  0xfb, 0xe5, 0xd5, 0xbe, 0xff, 0xf3, 0xbe, 0xbd, 0xcb, 0xf2, 0x75, 0x3d,
  0xc3, 0xe2, 0x06, 0x3e, 0xcb, 0xa8, 0x37, 0x3e, 0x5c, 0xeb, 0x37, 0x3e,
  0xb4, 0x58, 0xbc, 0x3b, 0xdf, 0x02, 0x8e, 0xbe, 0x13, 0x46, 0xf4, 0xbd,
  0xb0, 0x5c, 0x14, 0x3e, 0xad, 0xdb, 0x91, 0x3e, 0x39, 0x8d, 0x72, 0x3e,
  0x57, 0xe5, 0xbf, 0xbd, 0x01, 0xad, 0x90, 0xbe, 0x7b, 0x8b, 0x8d, 0xbe,
  0xb9, 0x34, 0x0e, 0x3e, 0x40, 0xbb, 0xbc, 0x3e, 0x2b, 0xef, 0xcb, 0x3e,
  0x0a, 0xac, 0xd0, 0x3e, 0x0d, 0x02, 0x12, 0x3e, 0x41, 0x61, 0x90, 0x3e,
  0xad, 0x32, 0x8e, 0x3e, 0x24, 0xdb, 0x14, 0x3e, 0x42, 0x83, 0xde, 0x3d,
  0xc9, 0xfc, 0x54, 0x3e, 0x77, 0xee, 0x3a, 0x3e, 0x7a, 0xc3, 0xcf, 0x3d,
  0x49, 0x10, 0x00, 0xbe, 0x04, 0xe6, 0x1b, 0xbe, 0x4a, 0x75, 0x37, 0x3c,
  0xbd, 0x44, 0x87, 0xbd, 0xc6, 0xb4, 0x85, 0xbe, 0xf2, 0x02, 0x92, 0xbe,
  0x8b, 0x71, 0x6f, 0xbe, 0xbd, 0x4f, 0x8f, 0xbd, 0xb2, 0xb0, 0xef, 0x3d,
  0x1b, 0xa3, 0x0d, 0xbd, 0x03, 0xb5, 0x0b, 0xb9, 0x22, 0x88, 0x03, 0x3e,
  0x9d, 0xa0, 0x9c, 0xbc, 0x49, 0xa5, 0x87, 0xbc, 0xbc, 0x90, 0x98, 0xbc,
  0x99, 0x0f, 0xf1, 0xbd, 0xdd, 0x74, 0xe4, 0xba, 0x15, 0x8b, 0x56, 0xbd,
  0x7d, 0x9c, 0x53, 0xbd, 0x17, 0x94, 0x89, 0xbc, 0x15, 0x85, 0xe4, 0xbd,
  0x3a, 0xd2, 0x55, 0x3d, 0x2d, 0xd7, 0x87, 0x3d, 0x8b, 0x5d, 0xd0, 0xbd,
  0x4d, 0x0e, 0xe7, 0xbd, 0x40, 0x48, 0x88, 0xbd, 0xb3, 0x1c, 0xbe, 0xbd,
  0xf9, 0xd6, 0x0d, 0xbd, 0xdf, 0x17, 0x8a, 0xbd, 0x1b, 0x84, 0x09, 0xbd,
  0x04, 0xf5, 0x51, 0xbd, 0xa6, 0xc2, 0xec, 0x3c, 0xa2, 0xd4, 0x0b, 0x3d,
  0x9e, 0x82, 0xa0, 0x3d, 0x1e, 0x81, 0x67, 0xbc, 0xbe, 0x35, 0x04, 0xbe,
  0x6c, 0x70, 0xbd, 0xbd, 0x44, 0x79, 0x69, 0xbd, 0x35, 0x57, 0xdf, 0xbc,
  0xc0, 0x30, 0x9f, 0xbc, 0x7e, 0xba, 0x95, 0xbc, 0x31, 0x1f, 0xd7, 0xbd,
  0x6d, 0xaa, 0x0f, 0xbd, 0x49, 0x19, 0xce, 0x3c, 0xe2, 0x74, 0x84, 0xbd,
  0x8c, 0xa2, 0x58, 0x3d, 0x01, 0x8d, 0xa2, 0xbc, 0xe6, 0x26, 0x30, 0x3c,
  0x75, 0x30, 0x36, 0x3d, 0x18, 0x86, 0x55, 0x3d, 0xc5, 0x47, 0xbc, 0xbd,
  0x88, 0xaa, 0x3c, 0xbe, 0xb6, 0x9c, 0x8c, 0xbd, 0xee, 0x82, 0x0f, 0xbe,
  0xea, 0xde, 0x8e, 0xbc, 0x57, 0x85, 0xdc, 0xbd, 0x0c, 0x2f, 0x10, 0xbe,
  0xe4, 0xae, 0x04, 0xbe, 0xa3, 0x09, 0x10, 0xbe, 0x8a, 0xf6, 0x20, 0xbd,
  0xcf, 0xb1, 0x7e, 0xbd, 0x29, 0xa6, 0x5c, 0xbd, 0xb8, 0xa0, 0xc1, 0xbd,
  0x78, 0x8e, 0xe3, 0xbd, 0xe7, 0x96, 0x3e, 0xbd, 0x07, 0x2b, 0x11, 0xbd,
  0xeb, 0xb0, 0xb6, 0xbc, 0xf1, 0x1d, 0x46, 0xbe, 0x9b, 0xac, 0x3f, 0xbe,
  0x4e, 0xa9, 0x4c, 0xbe, 0xdd, 0x88, 0x3c, 0xbe, 0x2c, 0x8c, 0x7f, 0xbe,
  0xa5, 0xb3, 0x93, 0xbe, 0x42, 0x24, 0x9c, 0xbe, 0x09, 0x60, 0x79, 0xbe,
  0xb2, 0xcc, 0x3b, 0xbe, 0x45, 0x9d, 0x42, 0xbc, 0x2e, 0x8e, 0x89, 0x3d,
  0xdc, 0xbb, 0xe4, 0xbd, 0x2d, 0xfa, 0xc3, 0xbd, 0x9d, 0x64, 0xfe, 0xbd,
  0x1e, 0xea, 0xd6, 0xbd, 0xfa, 0xd8, 0xd5, 0xbd, 0x9e, 0x53, 0x9d, 0xbe,
  0x2e, 0x27, 0xb7, 0xbe, 0xb1, 0xaf, 0x6d, 0xbe, 0x61, 0x23, 0xce, 0xbd,
  0xd6, 0xd6, 0x4d, 0xbd, 0x89, 0x5d, 0x9a, 0xbd, 0x5e, 0x0e, 0xe6, 0xbb,
  0x01, 0xa6, 0x0a, 0xbe, 0xf7, 0x35, 0xfc, 0xbd, 0x46, 0x8c, 0x70, 0xbe,
  0x36, 0x46, 0xa5, 0xbd, 0x90, 0xa1, 0x6d, 0xbe, 0x21, 0x86, 0xba, 0xbe,
  0x9a, 0x3b, 0x8f, 0xbe, 0xf8, 0xf9, 0x85, 0xbe, 0x0f, 0x3f, 0x92, 0xbe,
  0x47, 0x06, 0x18, 0xbe, 0xe9, 0x93, 0x41, 0xbe, 0xb1, 0xca, 0x19, 0xbe,
  0xb9, 0x39, 0x83, 0xbe, 0xa8, 0xee, 0x5c, 0xbd, 0x40, 0xac, 0xee, 0x3c,
  0x8b, 0x62, 0x53, 0xbd, 0xe3, 0xd2, 0x25, 0xbe, 0xd7, 0xef, 0x62, 0xbd,
  0xd5, 0x21, 0x3d, 0xbd, 0x08, 0xcb, 0xa1, 0xbd, 0x29, 0xac, 0xc5, 0xbf,
  0x3f, 0x1d, 0xea, 0xbf, 0xa2, 0xb9, 0xc1, 0xbf, 0x7d, 0x70, 0x8d, 0xbf,
  0xd9, 0x04, 0x17, 0xbf, 0xb5, 0xd3, 0x79, 0xbe, 0x9e, 0x91, 0x53, 0x3e,
  0x05, 0x7a, 0xb5, 0x3e, 0x25, 0xd2, 0x99, 0x3f, 0xbb, 0x74, 0xcd, 0x3f,
  0x31, 0x9c, 0x7a, 0x3f, 0xf6, 0x21, 0xd2, 0xbe, 0xda, 0x89, 0x63, 0xbf,
  0xde, 0xfd, 0x54, 0xbe, 0x67, 0x49, 0xdf, 0x3e, 0xdc, 0xb7, 0xbe, 0x3e,
  0x01, 0x5b, 0x7d, 0x3c, 0x39, 0x13, 0x01, 0x3e, 0xab, 0x26, 0x36, 0x3e,
  0xc3, 0xd9, 0x78, 0x3e, 0xaa, 0x90, 0xd2, 0xbd, 0xc4, 0xd6, 0x08, 0x3e,
  0x3d, 0x0a, 0xd9, 0x3e, 0x73, 0xc9, 0x04, 0x3e, 0xc6, 0xc1, 0xb0, 0xbe,
  0x21, 0xdd, 0xdf, 0xbe, 0xc3, 0x2e, 0xcd, 0xbe, 0x28, 0x6e, 0x3c, 0xbd,
  0x99, 0xe9, 0x86, 0x3e, 0x09, 0xc3, 0xac, 0xbd, 0x69, 0x53, 0xee, 0xbe,
  0x69, 0x9f, 0xaa, 0xbe, 0xaa, 0xbc, 0x89, 0x3d, 0xc4, 0x3e, 0x0c, 0x3f,
  0x45, 0xb8, 0x4d, 0x3f, 0xec, 0x62, 0xe7, 0x3e, 0xff, 0xd5, 0x9b, 0x3d,
  0xa6, 0xed, 0x34, 0xbe, 0x56, 0x57, 0x8d, 0xbd, 0x3a, 0x4f, 0x96, 0xbc,
  0x16, 0x6e, 0xa5, 0x3a, 0xa1, 0x7a, 0xc3, 0x3e, 0xc2, 0x11, 0x04, 0x3d,
  0xb5, 0x8e, 0xae, 0x3c, 0x85, 0x86, 0xb6, 0xbd, 0x87, 0x78, 0x07, 0xbf,
  0x3e, 0x96, 0x16, 0xbf, 0x4f, 0x23, 0x09, 0xbf, 0x0b, 0x1f, 0x14, 0xbf,
  0x96, 0xd5, 0xaa, 0xbe, 0x4c, 0x19, 0x5a, 0xbd, 0x4f, 0xe3, 0x96, 0x3d,
  0xe5, 0x4a, 0x83, 0x3e, 0xd6, 0xd5, 0x3e, 0x3f, 0x97, 0x4e, 0x9e, 0x3f,
  0xb8, 0x3d, 0x0b, 0x3f, 0xc6, 0x8d, 0xfc, 0xbc, 0x76, 0x99, 0x16, 0xbf,
  0x64, 0x8e, 0x8c, 0xbe, 0xf3, 0xe8, 0x94, 0x3e, 0xdc, 0x70, 0x8b, 0x3e,
  0x05, 0x77, 0x9a, 0x3e, 0xfd, 0x76, 0x28, 0x3d, 0x39, 0xbb, 0x09, 0x3e,
  0x39, 0xa5, 0xd3, 0x3d, 0x3d, 0xa2, 0xae, 0xbe, 0xe2, 0x4a, 0x14, 0xbf,
  0x71, 0x47, 0x56, 0x3e, 0x0a, 0x93, 0x07, 0x3e, 0x0c, 0x2a, 0xa2, 0xbe,
  0x1f, 0x94, 0xd2, 0xbe, 0xa1, 0xc6, 0x75, 0xbe, 0x62, 0xec, 0x90, 0xbc,
  0x0c, 0x8d, 0xfe, 0x3d, 0xe5, 0xb0, 0x85, 0xbd, 0xb1, 0xf3, 0xca, 0xbe,
  0x02, 0x70, 0x5b, 0xbe, 0x32, 0xe7, 0xee, 0x3e, 0xee, 0xc7, 0x92, 0x3f,
  0x9a, 0x3d, 0x99, 0x3f, 0xe3, 0x71, 0x57, 0x3f, 0xaf, 0xb2, 0xec, 0x3c,
  0xf0, 0x7c, 0xbf, 0xbe, 0x7e, 0x0a, 0x89, 0xbe, 0x10, 0x84, 0xad, 0x3c,
  0xc2, 0xb5, 0x82, 0x3e, 0x92, 0xf1, 0x00, 0x3f, 0x22, 0x72, 0x2d, 0x3e,
  0x13, 0x31, 0xf5, 0xbe, 0x26, 0xbc, 0x73, 0xbf, 0xfb, 0x81, 0x80, 0xbf,
  0xfa, 0xf4, 0x1b, 0xbf, 0x1d, 0xc2, 0xde, 0xbe, 0x5e, 0x3e, 0x4e, 0xbe,
  0x18, 0xeb, 0xa5, 0xbe, 0x39, 0xce, 0xe5, 0x3c, 0xf6, 0xe6, 0x1d, 0x3f,
  0xf9, 0xdb, 0xbb, 0x3f, 0x55, 0x8b, 0xed, 0x3f, 0xd8, 0xfa, 0xb5, 0x3f,
  0x27, 0xa7, 0x99, 0xbd, 0xd1, 0x9b, 0x0c, 0x3d, 0xe8, 0xf3, 0x45, 0xbd,
  0xc2, 0x22, 0x46, 0xbc, 0x11, 0x3d, 0x83, 0x3d, 0xa9, 0x79, 0x52, 0x3c,
  0xd9, 0xee, 0x67, 0x3d, 0x8a, 0xec, 0xff, 0x3d, 0xfc, 0x55, 0x2e, 0x3d,
  0x69, 0x03, 0x98, 0x3c, 0x82, 0x0a, 0xb6, 0xbd, 0xe0, 0xcc, 0xfb, 0xbc,
  0x85, 0x1a, 0x7e, 0xbd, 0x85, 0xdf, 0x8d, 0xbd, 0xfc, 0x14, 0x35, 0xbd,
  0xdf, 0xe9, 0x54, 0x3b, 0x1a, 0x00, 0x2c, 0xbc, 0xd4, 0xad, 0xda, 0x3d,
  0xb7, 0x25, 0x14, 0x3d, 0x2a, 0xd5, 0x06, 0x3d, 0x94, 0xac, 0x1c, 0x3d,
  0xbc, 0xe2, 0x1a, 0x3b, 0x97, 0xeb, 0x97, 0x3d, 0x46, 0x4e, 0x55, 0xbc,
  0xcb, 0xdc, 0x76, 0x3c, 0xba, 0xc6, 0xe6, 0x3c, 0x7d, 0x32, 0x3c, 0x3d,
  0x12, 0x34, 0xf7, 0x3a, 0x03, 0x09, 0x2e, 0xbd, 0x98, 0xf0, 0x05, 0xbd,
  0x62, 0x52, 0x23, 0xbd, 0x85, 0xf6, 0xab, 0x3c, 0x2b, 0xcb, 0xb8, 0xbd,
  0x2f, 0x9a, 0x86, 0xbd, 0x43, 0x10, 0x58, 0xbd, 0xc4, 0xc2, 0xf8, 0xbd,
  0x83, 0x40, 0x0c, 0xbe, 0x8c, 0x59, 0x48, 0xbd, 0x5b, 0xfe, 0xb7, 0xbd,
  0xda, 0x25, 0x12, 0xbe, 0x11, 0x87, 0xe2, 0xbd, 0x7e, 0x55, 0xe2, 0xbd,
  0xa7, 0x11, 0x94, 0xbd, 0xab, 0xe8, 0xa5, 0xbd, 0x1f, 0x96, 0x4f, 0xbe,
  0xb6, 0x6f, 0xf0, 0xbd, 0x06, 0x23, 0x0f, 0xbe, 0x1f, 0x84, 0x11, 0xbe,
  0x35, 0x5e, 0x86, 0xbe, 0x9a, 0xf9, 0x74, 0xbe, 0x1f, 0xc5, 0x56, 0xbe,
  0x28, 0xd9, 0x39, 0xbe, 0xfd, 0x42, 0x3c, 0xbe, 0x75, 0x30, 0x1d, 0xbe,
  0xa3, 0x28, 0x68, 0xbd, 0x58, 0x42, 0x91, 0xbd, 0x16, 0x4b, 0xd5, 0xbd,
  0x8e, 0x0c, 0x24, 0xbe, 0xc5, 0x03, 0xb3, 0xbd, 0x4d, 0xd1, 0x79, 0xbe,
  0x6e, 0xb4, 0xb3, 0xbe, 0xba, 0xcb, 0x22, 0xbe, 0x9a, 0x31, 0x10, 0xbe,
  0xdf, 0x34, 0x0b, 0xbe, 0x95, 0xd0, 0x2f, 0xbe, 0xd2, 0xc8, 0x64, 0xbe,
  0xd4, 0x76, 0x4e, 0xbe, 0xf0, 0x7d, 0x0a, 0xbe, 0x74, 0xdc, 0x5c, 0xbe,
  0x32, 0xa7, 0x9d, 0xbe, 0xc1, 0x75, 0xa2, 0xbe, 0xc7, 0xc3, 0xab, 0xbe,
  0x23, 0x66, 0xc4, 0xbe, 0xb5, 0x42, 0x9f, 0xbe, 0x9e, 0xc3, 0x79, 0xbe,
  0x60, 0x64, 0xb6, 0xbe, 0x22, 0x3f, 0xae, 0xbe, 0x14, 0xfb, 0x9c, 0xbe,
  0xcf, 0xcc, 0x82, 0xbe, 0x9c, 0x93, 0x93, 0xbe, 0x21, 0x3c, 0xa9, 0xbe,
  0x20, 0xb7, 0x7a, 0xbe, 0x6b, 0xe8, 0xa0, 0xbe, 0x09, 0x3e, 0xbf, 0xbe,
  0x1a, 0x66, 0x67, 0xbe, 0x93, 0xdd, 0x67, 0xbe, 0xdb, 0x0c, 0x71, 0xbe,
  0xdc, 0x56, 0x20, 0xbe, 0xff, 0x33, 0x39, 0xbe, 0x73, 0x7c, 0x27, 0xbe,
  0x1e, 0xf2, 0xc2, 0xbd, 0xdf, 0xb3, 0x46, 0xbe, 0xd3, 0xfa, 0x87, 0xbe,
  0x15, 0x0a, 0x69, 0xbe, 0xf5, 0xce, 0x8c, 0xbe, 0x8c, 0xc8, 0x8d, 0xbe,
  0xd6, 0x4d, 0x94, 0xbe, 0x55, 0x0e, 0x93, 0xbe, 0xc9, 0xc8, 0x96, 0xbe,
  0xb2, 0x77, 0x80, 0xbe, 0x36, 0x95, 0xff, 0xff, 0x04, 0x00, 0x00, 0x00,
  0x00, 0x01, 0x00, 0x00, 0x95, 0x2f, 0x16, 0xbf, 0x50, 0x93, 0xd0, 0x3e,
  0x8a, 0xa5, 0x1d, 0x3f, 0x42, 0x7b, 0x1d, 0xbf, 0xb3, 0xdb, 0x99, 0xbf,
  0x91, 0x71, 0xaa, 0x3e, 0x27, 0x79, 0x9d, 0xbf, 0x98, 0x9f, 0x20, 0xbf,
  0x6b, 0x3d, 0x68, 0xbf, 0xdc, 0x01, 0x2a, 0x3e, 0x47, 0x26, 0x82, 0xbf,
  0xaf, 0x16, 0x95, 0xbf, 0x0a, 0xe3, 0x14, 0x3f, 0xe6, 0xf8, 0x7a, 0x3e,
  0xae, 0x49, 0xb7, 0xbe, 0xce, 0xb4, 0x12, 0x3f, 0xb6, 0xa6, 0x96, 0x3e,
  0x20, 0xd9, 0x68, 0xbf, 0x2d, 0x17, 0x5c, 0xbf, 0xf5, 0x9e, 0xdf, 0x3e,
  0x2f, 0x8a, 0x4f, 0xbf, 0x72, 0xa4, 0xcd, 0xbd, 0x2c, 0x30, 0x76, 0x3e,
  0x5b, 0xa5, 0xe4, 0xbe, 0xa5, 0xe7, 0x0d, 0x3e, 0xee, 0x47, 0xe2, 0x3e,
  0x62, 0xeb, 0xa8, 0x3e, 0x71, 0x13, 0xb6, 0x3e, 0x8a, 0x2d, 0x47, 0x3e,
  0xe9, 0x7c, 0x63, 0x3e, 0x22, 0x50, 0x73, 0xbf, 0x1a, 0x56, 0x6b, 0xbf,
  0xf7, 0xe5, 0x95, 0xbd, 0xce, 0xe8, 0xa1, 0xbe, 0x4d, 0x46, 0x87, 0x3d,
  0xdd, 0x33, 0x87, 0x3f, 0xbb, 0x46, 0x4d, 0x3f, 0x8c, 0x1b, 0xd1, 0xbd,
  0x86, 0x0a, 0x7c, 0x3f, 0xf6, 0x26, 0x4a, 0x3f, 0x36, 0xc2, 0x45, 0x3f,
  0x2e, 0x73, 0xac, 0x3e, 0xed, 0x4d, 0xa2, 0x3f, 0x90, 0x10, 0x2e, 0x3f,
  0x86, 0xc6, 0x75, 0x3d, 0x1b, 0x3a, 0x39, 0x3e, 0xe4, 0xb3, 0x3c, 0x3f,
  0x23, 0x77, 0x27, 0xbe, 0x32, 0x00, 0xb6, 0xbe, 0xff, 0x18, 0x79, 0x3f,
  0x39, 0xf7, 0x94, 0x3f, 0xbb, 0xbc, 0xdc, 0x3d, 0x31, 0xc2, 0x50, 0x3f,
  0xa1, 0x23, 0x35, 0xbf, 0xe3, 0x5c, 0x90, 0xbe, 0xa4, 0x2c, 0x1d, 0x3f,
  0x52, 0x85, 0xd1, 0xbd, 0x19, 0x21, 0x8f, 0xbd, 0x1d, 0xc0, 0x69, 0xbe,
  0xb2, 0x15, 0xb3, 0xbe, 0x95, 0xa0, 0x87, 0x3d, 0xd7, 0xb8, 0xd7, 0xbe,
  0xcf, 0x9e, 0x2a, 0x3f, 0xd4, 0x1e, 0x9c, 0x3f, 0x42, 0x96, 0xff, 0xff,
  0x04, 0x00, 0x00, 0x00, 0x00, 0x68, 0x00, 0x00, 0xeb, 0x07, 0x03, 0x01,
  0x20, 0x21, 0x0c, 0xf9, 0xfb, 0xf3, 0xe0, 0xce, 0xf4, 0x07, 0xdc, 0xf9,
  0x1a, 0xe4, 0x08, 0x0b, 0x1e, 0x16, 0x1e, 0xfe, 0xf3, 0x06, 0x07, 0xef,
  0x13, 0x15, 0xef, 0xfe, 0x03, 0xf9, 0xed, 0x12, 0x0a, 0x0c, 0x10, 0xfd,
  0x19, 0xf5, 0xfe, 0xe8, 0x07, 0xf8, 0xf5, 0x16, 0x04, 0x00, 0xea, 0x06,
  0x0f, 0xf2, 0x0f, 0xfe, 0x0e, 0x02, 0x09, 0xea, 0xf8, 0xfe, 0x00, 0x07,
  0x02, 0x11, 0xf1, 0x02, 0x1d, 0xfc, 0x0c, 0x0f, 0x10, 0x02, 0x08, 0x07,
  0xf5, 0x03, 0xf8, 0x05, 0x2a, 0x17, 0x01, 0x0c, 0x1b, 0xf4, 0x09, 0x05,
  0xf9, 0xfd, 0x10, 0xfb, 0x06, 0x02, 0x08, 0x39, 0x23, 0x1a, 0xfc, 0x0e,
  0x05, 0xf3, 0x17, 0x06, 0x01, 0xfd, 0x18, 0xf3, 0xf3, 0x11, 0x02, 0x12,
  0xfe, 0x13, 0x04, 0x0b, 0xf1, 0xf9, 0x0b, 0x07, 0xf0, 0xfc, 0x01, 0xf7,
  0xff, 0x0a, 0xed, 0x37, 0x03, 0xf2, 0x01, 0x03, 0x03, 0x09, 0xfb, 0x06,
  0x04, 0xf1, 0xec, 0xfe, 0xed, 0x0e, 0xf8, 0x1f, 0x16, 0xfe, 0xf2, 0x06,
  0xf7, 0x0f, 0x0b, 0x06, 0x00, 0xf0, 0xfe, 0xf9, 0xdf, 0xf7, 0xf1, 0x0c,
  0x0c, 0xfb, 0xf8, 0x02, 0xf4, 0x14, 0x07, 0xfd, 0xf5, 0xec, 0xf6, 0x03,
  0xe9, 0x06, 0xf1, 0xfd, 0x1d, 0xf9, 0xf7, 0x00, 0xfe, 0x12, 0x02, 0x05,
  0xf6, 0x02, 0xfd, 0x05, 0xf0, 0x03, 0xe7, 0xfa, 0x21, 0x07, 0xfd, 0x06,
  0x0a, 0x0e, 0x17, 0x0f, 0xfa, 0xff, 0xfe, 0x06, 0xfe, 0x00, 0xf0, 0x05,
  0x19, 0xd5, 0xef, 0x02, 0x0e, 0x0b, 0xfa, 0xf0, 0x0e, 0x05, 0xf2, 0x09,
  0xf5, 0x04, 0xec, 0x10, 0x1d, 0xea, 0xe4, 0x04, 0x0c, 0x07, 0x0c, 0x0a,
  0x01, 0xfe, 0xf3, 0x07, 0xfb, 0xf8, 0xf4, 0x0c, 0x25, 0x01, 0xf7, 0x03,
  0x01, 0x0d, 0xf7, 0xfd, 0xf6, 0x0b, 0xfa, 0x01, 0x04, 0x00, 0xfd, 0x0b,
  0x17, 0x00, 0x0b, 0x07, 0x02, 0x15, 0x06, 0x00, 0xf6, 0x00, 0xf4, 0x08,
  0xff, 0x09, 0xfd, 0x03, 0x14, 0xe9, 0x0d, 0x0c, 0xf8, 0x12, 0x16, 0x0f,
  0xf6, 0xf4, 0x06, 0x0b, 0x07, 0x08, 0xf8, 0x07, 0x25, 0x1b, 0xe1, 0x04,
  0x04, 0x17, 0x00, 0x11, 0x00, 0x02, 0x10, 0x02, 0x0a, 0x04, 0xf6, 0xf8,
  0x13, 0x14, 0x02, 0x06, 0xeb, 0x09, 0xf8, 0x14, 0xf6, 0x07, 0x00, 0xfa,
  0xf3, 0xf1, 0x03, 0x0a, 0xf5, 0x01, 0x13, 0x05, 0xf9, 0x06, 0x02, 0x05,
  0xe4, 0x01, 0x04, 0xf7, 0xfb, 0xe4, 0x02, 0x08, 0x1c, 0xf1, 0x16, 0x08,
  0x0a, 0xfb, 0x0a, 0x12, 0xec, 0xfc, 0x04, 0x00, 0xef, 0x03, 0xfc, 0xf8,
  0x10, 0xf8, 0x21, 0x0c, 0x09, 0x03, 0x0a, 0xf3, 0xf1, 0xf9, 0x00, 0x08,
  0xfe, 0xe4, 0xf3, 0x03, 0x15, 0x07, 0x29, 0x09, 0x18, 0xfc, 0x25, 0xfe,
  0xe3, 0xfd, 0xe8, 0x05, 0x1a, 0x06, 0xeb, 0x0d, 0xfa, 0x06, 0x2d, 0x00,
  0x16, 0xfc, 0xf2, 0xfb, 0xf0, 0xf7, 0xf4, 0xfe, 0xf5, 0xee, 0xfd, 0xfe,
  0x0a, 0xf4, 0x24, 0x0a, 0x1a, 0xfa, 0x0d, 0x04, 0xeb, 0xfa, 0xef, 0xfb,
  0xf1, 0xed, 0xfb, 0x00, 0x0d, 0xfc, 0x19, 0x0b, 0x22, 0x06, 0x29, 0x05,
  0xf2, 0xfb, 0xf6, 0x03, 0xf0, 0x06, 0xf5, 0xfe, 0x0a, 0x00, 0x16, 0xfd,
  0x15, 0xfa, 0xf7, 0x0d, 0x05, 0xff, 0xfc, 0xf8, 0xed, 0x03, 0xf8, 0x04,
  0x19, 0x12, 0x01, 0x09, 0x18, 0xfe, 0x0a, 0x05, 0xfa, 0xf9, 0xfe, 0xf8,
  0xec, 0x06, 0x01, 0x0a, 0x20, 0x07, 0x06, 0x11, 0x1a, 0x07, 0xea, 0x0d,
  0x02, 0xf4, 0xfe, 0xf9, 0xe9, 0xf5, 0xfa, 0x0f, 0x18, 0x0b, 0xfc, 0x07,
  0x12, 0x0d, 0xff, 0x07, 0x0e, 0xf6, 0xfd, 0xf4, 0xdd, 0xef, 0xfc, 0x05,
  0x12, 0x06, 0xf6, 0x02, 0xfe, 0x10, 0x03, 0x02, 0x0b, 0xfd, 0x01, 0xec,
  0xf4, 0xf1, 0xf8, 0x06, 0x09, 0x05, 0x19, 0x0d, 0xf9, 0x0d, 0x10, 0x00,
  0x05, 0xfc, 0x0c, 0xe9, 0x04, 0xfa, 0xf4, 0x04, 0x0d, 0x0f, 0x00, 0x0d,
  0x05, 0x09, 0x0c, 0x08, 0xf9, 0xf5, 0x06, 0xf7, 0x06, 0xf9, 0xe6, 0x04,
  0xfe, 0x18, 0xf8, 0x02, 0x0f, 0x0c, 0x12, 0x00, 0xfa, 0xed, 0xf8, 0xfd,
  0xfb, 0x06, 0xec, 0x02, 0x16, 0x11, 0xf4, 0x0c, 0x0b, 0x09, 0x0a, 0x04,
  0x07, 0x05, 0x06, 0xfe, 0x07, 0xf7, 0xfd, 0x00, 0xfd, 0x0b, 0x02, 0x02,
  0xfb, 0x0c, 0x17, 0x06, 0xf2, 0xf4, 0x06, 0x02, 0x12, 0xf7, 0xed, 0xf5,
  0xf7, 0x01, 0x19, 0x08, 0x00, 0x0b, 0x01, 0x11, 0x05, 0xfd, 0xfc, 0x09,
  0x0c, 0xff, 0xe3, 0x1d, 0xe5, 0x12, 0xec, 0xfd, 0x17, 0x10, 0xf5, 0x09,
  0xf8, 0xee, 0x01, 0x0b, 0x08, 0xf7, 0xec, 0xee, 0x0c, 0xff, 0xee, 0x04,
  0x0b, 0x18, 0xec, 0x03, 0xeb, 0xfc, 0xf6, 0x04, 0x17, 0xff, 0xeb, 0x0c,
  0xf5, 0xff, 0x0e, 0x04, 0x0f, 0x10, 0x07, 0x04, 0xfc, 0x05, 0xee, 0x01,
  0x05, 0x01, 0xf3, 0xe9, 0xff, 0x19, 0x17, 0x03, 0x17, 0x1a, 0x17, 0xf7,
  0xf0, 0xf0, 0xec, 0xfe, 0x09, 0x04, 0xfd, 0x02, 0xfd, 0xf7, 0x22, 0x03,
  0x0f, 0x10, 0xfc, 0x0c, 0xea, 0x12, 0xf7, 0x07, 0x04, 0x0c, 0xf8, 0xf5,
  0xf7, 0x13, 0x23, 0x0c, 0x15, 0x10, 0xf8, 0xfc, 0xec, 0xff, 0xde, 0x02,
  0x08, 0x05, 0xf4, 0xfb, 0x05, 0x07, 0x0d, 0x03, 0x16, 0x10, 0x08, 0x0e,
  0xed, 0x0c, 0xfa, 0x0b, 0xf3, 0xf2, 0xfe, 0x0a, 0x20, 0x15, 0x15, 0x08,
  0x10, 0x0c, 0xf6, 0x04, 0x06, 0x07, 0xf7, 0x03, 0xfc, 0x01, 0x0b, 0xfd,
  0x03, 0x0b, 0x16, 0x06, 0x28, 0x0f, 0xf7, 0x01, 0xf2, 0xff, 0xee, 0xfe,
  0xff, 0x06, 0x07, 0xfe, 0x09, 0x11, 0x0e, 0x0d, 0x1b, 0x12, 0x20, 0x0d,
  0xf5, 0xff, 0xea, 0xf2, 0xeb, 0x00, 0xfb, 0xff, 0xfa, 0xf8, 0x16, 0x07,
  0x00, 0x11, 0x07, 0x17, 0xf1, 0x00, 0xe5, 0xf0, 0xf7, 0xf2, 0x01, 0x09,
  0x0b, 0xfc, 0x0d, 0x01, 0x05, 0x13, 0xfb, 0x0c, 0xf1, 0xee, 0xf5, 0xe0,
  0xe5, 0xec, 0xf4, 0x07, 0xf8, 0x11, 0x2e, 0x06, 0x05, 0x1a, 0xfe, 0x07,
  0xef, 0xe2, 0xe8, 0xee, 0xe4, 0xe8, 0xfe, 0x01, 0xef, 0x28, 0x0c, 0x03,
  0x17, 0x39, 0xfc, 0x08, 0xf4, 0xc9, 0x13, 0xc6, 0xcb, 0xda, 0xfd, 0xfc,
  0xdc, 0xfb, 0xf2, 0xfa, 0xd3, 0x96, 0x02, 0xee, 0xf4, 0x07, 0x05, 0x01,
  0xef, 0xf0, 0x0c, 0xf7, 0xe9, 0x06, 0xdd, 0xfd, 0xed, 0xac, 0xf7, 0x03,
  0xf3, 0xfd, 0x0b, 0xf9, 0x00, 0x02, 0x0c, 0xdc, 0xd9, 0xdd, 0xda, 0xfa,
  0xf0, 0xca, 0xf0, 0xf4, 0xed, 0x0c, 0x07, 0xf3, 0x05, 0xfb, 0x01, 0xef,
  0xde, 0xf6, 0xe9, 0x00, 0xd7, 0xe1, 0x0c, 0xf7, 0xf1, 0xf3, 0x11, 0x08,
  0x15, 0x02, 0xfd, 0xf0, 0xdf, 0x07, 0xe4, 0x05, 0xe2, 0xfe, 0xfa, 0xf3,
  0xf0, 0xfa, 0x11, 0x06, 0xfb, 0xfa, 0x0f, 0xf9, 0xe8, 0xde, 0xed, 0x08,
  0xdf, 0xff, 0xdb, 0xee, 0x00, 0x04, 0x0c, 0x00, 0x02, 0x06, 0x0f, 0xe0,
  0xc8, 0xec, 0xdc, 0xfe, 0xef, 0x0a, 0xec, 0xfc, 0xf7, 0xfa, 0x10, 0x05,
  0x06, 0x09, 0xfa, 0xda, 0xe1, 0xf9, 0xf4, 0x06, 0xef, 0x0f, 0xf9, 0xff,
  0x04, 0xf7, 0xf4, 0x09, 0x09, 0x0e, 0xf8, 0xe5, 0xd9, 0xdd, 0xfa, 0xff,
  0x04, 0x10, 0xd2, 0xf6, 0x05, 0xfb, 0xf7, 0x0e, 0xfd, 0xf4, 0xf7, 0xdb,
  0xe5, 0xdd, 0xeb, 0x01, 0x15, 0x08, 0xe3, 0xf8, 0xfd, 0xec, 0x07, 0x07,
  0xf8, 0xd1, 0x07, 0xd4, 0xe9, 0xfe, 0xe5, 0x06, 0xe9, 0x0f, 0xf8, 0xfd,
  0xf0, 0xf6, 0xfd, 0xf4, 0xfe, 0xd8, 0xfd, 0xec, 0xc9, 0xf5, 0xee, 0x00,
  0xe2, 0x0f, 0xeb, 0xfd, 0xf2, 0xdb, 0xe8, 0xe9, 0xf5, 0xfd, 0xef, 0xe7,
  0xca, 0xee, 0xf3, 0xff, 0x00, 0x0a, 0x08, 0xff, 0xfc, 0xea, 0xe7, 0xdf,
  0xd4, 0xf2, 0xf4, 0xf1, 0xf9, 0xe3, 0xef, 0xfd, 0xfc, 0x04, 0x04, 0xfc,
  0xf2, 0xff, 0xef, 0xea, 0xeb, 0xf8, 0xee, 0xf6, 0xf4, 0xfc, 0xf8, 0x01,
  0x08, 0x08, 0x03, 0xf9, 0xe8, 0x05, 0xe5, 0xe1, 0xf9, 0xfc, 0xe0, 0x0b,
  0xf8, 0xfc, 0x03, 0xfd, 0x13, 0x03, 0x00, 0xff, 0xe5, 0x06, 0xe9, 0xf0,
  0x03, 0xfd, 0xe5, 0x08, 0x04, 0x0d, 0xf6, 0x00, 0x0b, 0x0b, 0x0a, 0xfb,
  0xe7, 0x02, 0xd8, 0xed, 0xfc, 0xfc, 0xf5, 0x0b, 0xf9, 0xec, 0xed, 0x04,
  0x0b, 0x11, 0xf1, 0xff, 0xf3, 0xea, 0xf2, 0xef, 0xeb, 0xf0, 0xff, 0x03,
  0x0e, 0x10, 0x17, 0x03, 0x15, 0x0c, 0xf7, 0xf3, 0x01, 0x18, 0xec, 0xec,
  0x0d, 0x07, 0xf2, 0x19, 0xfd, 0xf9, 0x0f, 0xf9, 0x02, 0x0b, 0x18, 0x02,
  0xf3, 0x00, 0xe4, 0xf4, 0x0c, 0x00, 0xfc, 0x14, 0xea, 0xf8, 0x01, 0xfd,
  0x19, 0x02, 0xe0, 0x07, 0xfc, 0xfa, 0xdb, 0xf9, 0x09, 0x0a, 0x03, 0x01,
  0x00, 0x03, 0x07, 0xff, 0x14, 0x00, 0xf1, 0x05, 0xf5, 0xec, 0xd5, 0xf5,
  0x13, 0xfd, 0x08, 0x0c, 0xf6, 0x0d, 0x10, 0x03, 0x22, 0xfb, 0xeb, 0xf8,
  0xf8, 0xf3, 0xec, 0xf4, 0x11, 0x0b, 0xf3, 0xfd, 0x09, 0x04, 0x07, 0xfe,
  0xfd, 0xff, 0x05, 0xf4, 0x00, 0xed, 0x00, 0xfe, 0x01, 0x0b, 0x00, 0x02,
  0x30, 0x17, 0x07, 0x03, 0x0e, 0x03, 0xff, 0xf9, 0x03, 0xfd, 0xec, 0x04,
  0x0a, 0x0d, 0x0e, 0x04, 0xfc, 0x08, 0x0b, 0xf8, 0x15, 0xfe, 0xf8, 0xfd,
  0x05, 0xff, 0xfd, 0x03, 0x0d, 0x0d, 0x0f, 0xf2, 0x09, 0x1f, 0x20, 0xff,
  0x11, 0x00, 0x0b, 0xf8, 0x04, 0xf0, 0xfa, 0xfd, 0x0a, 0x17, 0x04, 0xe6,
  0x03, 0x29, 0x0a, 0x00, 0xf7, 0xf6, 0xff, 0xf1, 0x08, 0x00, 0xfa, 0x00,
  0x05, 0x0d, 0x00, 0xe3, 0xfd, 0x0f, 0x13, 0x02, 0xfc, 0xfc, 0x03, 0xfa,
  0x06, 0xf4, 0x0e, 0x04, 0xfb, 0xf7, 0x09, 0xf8, 0xfc, 0x0e, 0x14, 0xf9,
  0xf8, 0x00, 0x01, 0xf6, 0x13, 0xe8, 0x0a, 0xf3, 0xf6, 0x22, 0x06, 0x06,
  0x14, 0x0f, 0x07, 0x01, 0x05, 0xff, 0x10, 0x00, 0x11, 0xe3, 0x04, 0xf2,
  0x0f, 0x00, 0xfc, 0x15, 0x02, 0x0e, 0x1e, 0xfc, 0x08, 0x0a, 0x13, 0x06,
  0x02, 0xe8, 0x0e, 0xfa, 0x08, 0x10, 0xf8, 0xfa, 0x07, 0xfa, 0xfe, 0x03,
  0x07, 0x0a, 0x24, 0xff, 0x03, 0xe6, 0x03, 0x01, 0xee, 0x0d, 0xf0, 0xeb,
  0x16, 0xf6, 0x02, 0x01, 0x0c, 0x0e, 0x02, 0x05, 0x04, 0xeb, 0xe9, 0xf8,
  0x07, 0x0f, 0xf9, 0xfb, 0xf6, 0x0d, 0x11, 0x00, 0x0e, 0x12, 0x1a, 0x05,
  0xf5, 0x02, 0xe4, 0xff, 0x08, 0x01, 0xf3, 0x12, 0x12, 0x0a, 0x0f, 0x01,
  0xf4, 0x0e, 0x0c, 0x02, 0x01, 0xec, 0xfa, 0xf8, 0xf9, 0x06, 0xf8, 0x07,
  0x0c, 0x00, 0x08, 0x03, 0xf7, 0x11, 0x07, 0x03, 0xfc, 0xee, 0xf3, 0xfd,
  0xe8, 0xf3, 0xf9, 0xf9, 0xee, 0x12, 0xf6, 0x00, 0xf7, 0x07, 0x0f, 0xfc,
  0xf0, 0xee, 0xf3, 0x04, 0xf2, 0xe7, 0xf8, 0x0c, 0xfc, 0xeb, 0x01, 0x02,
  0xec, 0x08, 0xee, 0x00, 0xf3, 0xe7, 0xee, 0xf6, 0xce, 0xe4, 0xfd, 0xe8,
  0xf9, 0xf0, 0xfd, 0x03, 0xf7, 0x0c, 0xf4, 0x08, 0xf0, 0xe9, 0xdd, 0xf6,
  0xe3, 0xea, 0xdf, 0xf7, 0xf7, 0xf8, 0x02, 0x03, 0xea, 0x15, 0xfb, 0x00,
  0xec, 0xe3, 0xea, 0xf7, 0xc9, 0xd8, 0xee, 0xf1, 0xe6, 0xfc, 0x01, 0xfe,
  0xf5, 0x16, 0xe5, 0xfd, 0xd1, 0xeb, 0xd7, 0xf8, 0xd6, 0xe3, 0xf1, 0x02,
  0xe3, 0xf2, 0x01, 0x00, 0xef, 0x13, 0xe6, 0xfc, 0xd7, 0xf5, 0xc3, 0xf8,
  0xc9, 0xd7, 0xee, 0x05, 0xd6, 0xf4, 0xfa, 0xfc, 0xfd, 0x14, 0xf0, 0xfc,
  0xd3, 0xfb, 0xcb, 0xfe, 0xe7, 0xed, 0xdd, 0x00, 0xd9, 0xf8, 0xfc, 0xfb,
  0x03, 0x10, 0xe5, 0xfc, 0xea, 0x01, 0xe3, 0xfd, 0xf0, 0xe5, 0xe0, 0xf9,
  0xe5, 0xf2, 0xfd, 0xf8, 0xf6, 0x15, 0xdb, 0xfe, 0xd6, 0xf6, 0xe7, 0xf8,
  0xd1, 0xd1, 0xcf, 0x02, 0xdc, 0xfa, 0xf5, 0x01, 0xf2, 0x0c, 0xea, 0xfb,
  0xe1, 0xfd, 0xf2, 0xfc, 0xe8, 0xd3, 0xd9, 0x00, 0xcd, 0xee, 0xf3, 0xff,
  0xfa, 0x0c, 0xeb, 0xfe, 0xdf, 0xfc, 0x03, 0xee, 0xf7, 0xf3, 0xc5, 0xf9,
  0xd7, 0xe9, 0xff, 0x05, 0xf4, 0x0d, 0xde, 0xf9, 0xeb, 0xf2, 0x03, 0xf3,
  0xe6, 0xff, 0xd2, 0xe2, 0xd7, 0xd8, 0x07, 0xfd, 0xf1, 0x02, 0xee, 0xf9,
  0xf0, 0xf5, 0xf3, 0xf7, 0xec, 0xfc, 0xdf, 0xd1, 0xd4, 0xdf, 0x03, 0xfd,
  0xf6, 0xf6, 0xdf, 0x10, 0xeb, 0x0b, 0x01, 0xe6, 0xf4, 0x09, 0xd0, 0x01,
  0xde, 0xd4, 0x1f, 0xfa, 0xdc, 0xe9, 0xf1, 0x06, 0xf1, 0x16, 0xed, 0x12,
  0x02, 0x0f, 0xdf, 0xf5, 0x05, 0x0b, 0xe7, 0x00, 0xf5, 0xdc, 0x16, 0xfc,
  0x0d, 0xf8, 0x22, 0xf7, 0x0f, 0xe3, 0x17, 0x0d, 0x04, 0x23, 0xf8, 0x01,
  0xfd, 0xee, 0x2c, 0xf8, 0xfd, 0xe1, 0x13, 0xf4, 0x0a, 0xfc, 0xf1, 0xe1,
  0x20, 0x10, 0xea, 0xfe, 0xf3, 0xfe, 0xed, 0xf9, 0xe8, 0x14, 0x0b, 0x02,
  0x05, 0xf2, 0xff, 0xf7, 0x02, 0x0d, 0xe8, 0xfa, 0xf8, 0x07, 0x01, 0xfc,
  0xe1, 0x00, 0xf7, 0xf5, 0xec, 0xdd, 0xec, 0xf7, 0x09, 0xf8, 0xfc, 0x03,
  0xe4, 0xfd, 0x05, 0xf9, 0xe9, 0xee, 0xfe, 0xf0, 0x02, 0xed, 0xd3, 0xeb,
  0x0b, 0x16, 0x0e, 0xfb, 0xe5, 0x09, 0x0b, 0x06, 0xf9, 0x03, 0xf5, 0xee,
  0xea, 0xe2, 0xe2, 0xe0, 0x04, 0x03, 0x01, 0x00, 0xfb, 0x09, 0x07, 0x00,
  0xfd, 0xff, 0xef, 0xf4, 0xee, 0x03, 0xee, 0xdd, 0xf4, 0x01, 0x03, 0xfd,
  0x00, 0x06, 0x14, 0xfb, 0xeb, 0xf9, 0xee, 0xf1, 0xeb, 0xf3, 0xdc, 0xe2,
  0x11, 0x03, 0x07, 0x04, 0xf6, 0x08, 0xfe, 0xfc, 0xfa, 0x0e, 0xee, 0xe7,
  0xf3, 0xf6, 0xe8, 0xf1, 0xfc, 0x0d, 0x0d, 0x06, 0x10, 0x0a, 0x0f, 0xfb,
  0xe5, 0x06, 0xed, 0xfa, 0xea, 0x06, 0xe8, 0xfc, 0x02, 0xfd, 0x0c, 0x02,
  0xf8, 0xfb, 0x19, 0xf9, 0xf2, 0xfd, 0xe7, 0xfc, 0xd9, 0xfe, 0xf4, 0xfc,
  0x01, 0x0b, 0xfa, 0x02, 0xfa, 0xfe, 0x05, 0x02, 0xea, 0xfd, 0xe7, 0xfc,
  0xda, 0xf1, 0xf1, 0x03, 0xfd, 0xf3, 0xfd, 0x02, 0x09, 0x03, 0x05, 0xff,
  0xed, 0x08, 0xed, 0xf1, 0xed, 0xfe, 0xe9, 0xff, 0x00, 0xec, 0xff, 0xff,
  0x06, 0xff, 0x03, 0x01, 0xd8, 0xfc, 0xf1, 0xfa, 0xe4, 0xed, 0xd6, 0xf6,
  0x08, 0xf1, 0x07, 0x07, 0xf5, 0x03, 0x03, 0x04, 0xe5, 0xf2, 0xe3, 0xfb,
  0xeb, 0xf4, 0xd3, 0x02, 0x06, 0xfd, 0x0e, 0xfb, 0x14, 0x0b, 0xf7, 0xfb,
  0xe7, 0xf6, 0xde, 0xea, 0xf6, 0xe7, 0xd7, 0xf2, 0x16, 0xf9, 0x03, 0x03,
  0x00, 0xfe, 0x0c, 0x04, 0xf4, 0x05, 0xdd, 0xf4, 0x00, 0x00, 0xd4, 0xea,
  0xea, 0xf5, 0xfe, 0x05, 0x09, 0x03, 0x05, 0x09, 0x00, 0xfc, 0xe6, 0xf2,
  0xf9, 0x06, 0xd7, 0xf8, 0x11, 0xec, 0x08, 0xfe, 0x11, 0xf6, 0x08, 0x0b,
  0x14, 0x04, 0xe5, 0xfa, 0xee, 0x0e, 0xde, 0x09, 0xeb, 0xfc, 0x0a, 0xfd,
  0xef, 0x06, 0xf7, 0x00, 0xff, 0x04, 0xe6, 0x01, 0xec, 0xfa, 0xee, 0xff,
  0xf0, 0xe3, 0x0b, 0x01, 0x12, 0xfd, 0xf4, 0x01, 0x05, 0x09, 0xde, 0xfd,
  0xf6, 0x07, 0xde, 0xfd, 0xfc, 0xe6, 0x0e, 0x11, 0x0a, 0xf6, 0xf7, 0x0f,
  0xf0, 0x09, 0x03, 0x13, 0xff, 0x07, 0xe7, 0xfb, 0x0c, 0xed, 0x01, 0x06,
  0x12, 0xef, 0x01, 0x01, 0x0c, 0x1e, 0x0b, 0x08, 0xff, 0x06, 0xe4, 0xf3,
  0xf9, 0xf3, 0x0f, 0x03, 0x02, 0xfc, 0x01, 0xfe, 0xfd, 0x06, 0x05, 0x10,
  0x05, 0x06, 0xeb, 0x06, 0xfd, 0xe9, 0xff, 0xfb, 0x03, 0xf7, 0x02, 0x02,
  0x0d, 0x0a, 0x05, 0x09, 0x01, 0x0a, 0xf2, 0x01, 0x0c, 0xf7, 0x09, 0x00,
  0x01, 0xff, 0x09, 0xfa, 0x05, 0x00, 0xf6, 0x12, 0x02, 0x07, 0xf7, 0x00,
  0x02, 0x02, 0x04, 0x05, 0x0a, 0xf8, 0xf3, 0xff, 0x03, 0x01, 0x03, 0x0d,
  0x18, 0x0c, 0xf1, 0xfd, 0x04, 0x08, 0xe5, 0x0a, 0xff, 0xfb, 0x12, 0xfb,
  0xf2, 0xfe, 0x00, 0x0c, 0x03, 0xfe, 0x03, 0xee, 0xf7, 0x0c, 0xeb, 0x0d,
  0x06, 0xfe, 0xf0, 0x05, 0x0e, 0x00, 0x09, 0x09, 0x08, 0x03, 0x01, 0xff,
  0x0a, 0x11, 0xef, 0x06, 0xfa, 0xfd, 0x00, 0x04, 0x0d, 0x03, 0x05, 0x07,
  0xf4, 0xf9, 0x08, 0x02, 0x05, 0x0f, 0xf2, 0x09, 0xfb, 0x00, 0xf4, 0x04,
  0x07, 0x05, 0xf8, 0xfa, 0xf5, 0xf4, 0xfc, 0x05, 0x02, 0xf2, 0xf0, 0x0a,
  0xf8, 0xfb, 0x02, 0xfc, 0xf3, 0xfe, 0x02, 0x04, 0xf8, 0xf1, 0xf2, 0xe3,
  0x0a, 0xfe, 0xe4, 0x09, 0x0e, 0xff, 0xf0, 0x04, 0xf7, 0x04, 0x01, 0xfc,
  0x02, 0xf2, 0xf9, 0xfd, 0x12, 0xf2, 0xf6, 0x02, 0xf3, 0xfd, 0xf9, 0xf3,
  0xf6, 0x04, 0x04, 0x0b, 0x18, 0xff, 0x03, 0xfc, 0xef, 0xf3, 0xfb, 0x03,
  0x02, 0xf4, 0xfa, 0x02, 0xf3, 0x07, 0xfe, 0x09, 0x07, 0xfa, 0xfa, 0xf6,
  0x08, 0x01, 0xf1, 0x03, 0xf6, 0xf7, 0xf5, 0x0c, 0x00, 0x04, 0x16, 0x0b,
  0x02, 0xf0, 0x05, 0x0b, 0x0f, 0xfd, 0x02, 0x01, 0x03, 0xfc, 0xe8, 0x0a,
  0xfa, 0x09, 0x0d, 0x09, 0x08, 0x07, 0x10, 0xf9, 0x01, 0xf8, 0xff, 0x07,
  0xfc, 0xf4, 0xff, 0xf1, 0xf7, 0x00, 0x0d, 0x0c, 0x19, 0xff, 0x05, 0xf7,
  0x03, 0xf8, 0xfd, 0xfe, 0xf5, 0xf4, 0x09, 0x00, 0x0a, 0x03, 0x09, 0x11,
  0x0d, 0x10, 0x02, 0xf4, 0xf8, 0xe5, 0x08, 0xfc, 0x09, 0xec, 0xed, 0x05,
  0xfd, 0x07, 0x0e, 0x16, 0x06, 0x0f, 0x06, 0xfd, 0x08, 0xf6, 0x0e, 0x04,
  0xfc, 0xf3, 0x0f, 0xf5, 0xfe, 0xf7, 0x06, 0x15, 0x15, 0xfe, 0xff, 0x05,
  0xf9, 0xfd, 0x14, 0x04, 0xf9, 0xed, 0xfb, 0x0a, 0x08, 0x07, 0x15, 0x08,
  0xfd, 0x04, 0x01, 0x09, 0xf3, 0xef, 0x03, 0xfd, 0xef, 0xff, 0x0f, 0x07,
  0x02, 0x04, 0x17, 0x08, 0x07, 0x02, 0xfe, 0xf6, 0x06, 0xe8, 0xff, 0xf8,
  0xfe, 0xfd, 0x08, 0x05, 0xf6, 0xf7, 0x17, 0xff, 0xf2, 0xf4, 0x03, 0xf9,
  0xf2, 0x07, 0x0b, 0x02, 0xf1, 0xf9, 0x00, 0x00, 0xf9, 0x0e, 0xfa, 0xf9,
  0xf1, 0xf4, 0x06, 0xf2, 0x02, 0xe5, 0xfe, 0xf2, 0xfb, 0x08, 0x00, 0x05,
  0xe8, 0x09, 0xfe, 0xf5, 0xf4, 0x04, 0xf6, 0x0c, 0xfa, 0xf4, 0xfc, 0x07,
  0xfd, 0xfb, 0x04, 0x09, 0xeb, 0x17, 0xf7, 0x04, 0x00, 0x02, 0xf0, 0x05,
  0xfa, 0xf9, 0xfb, 0xfb, 0xfc, 0x01, 0x14, 0x09, 0xe8, 0x1a, 0xf7, 0x04,
  0x08, 0x00, 0xff, 0x0b, 0xfc, 0x0d, 0xe7, 0xfb, 0xff, 0xfa, 0xf5, 0xf2,
  0xe5, 0x10, 0x03, 0x09, 0x10, 0x07, 0x03, 0x16, 0x0b, 0xf8, 0xfb, 0x03,
  0x09, 0xe3, 0x1f, 0x07, 0xf3, 0x26, 0x13, 0x0a, 0x2d, 0x20, 0x0c, 0x01,
  0x06, 0xf8, 0xf2, 0x02, 0x16, 0xdb, 0x13, 0x13, 0x0d, 0x11, 0x09, 0x17,
  0x20, 0x17, 0x03, 0x14, 0x09, 0x0b, 0xf9, 0xfd, 0xff, 0xbb, 0xfb, 0x0e,
  0xfe, 0x1e, 0x05, 0x2b, 0x1e, 0x23, 0x09, 0x02, 0x0f, 0x1d, 0x01, 0x06,
  0x16, 0x62, 0x1a, 0x05, 0x0c, 0xff, 0xf4, 0x30, 0x1f, 0xf3, 0x17, 0xf8,
  0x1f, 0x1d, 0x15, 0x02, 0x27, 0x3a, 0x28, 0xff, 0x11, 0xfd, 0xe2, 0x17,
  0x17, 0x02, 0x15, 0x11, 0x23, 0x25, 0x22, 0x07, 0x0d, 0x2e, 0x16, 0x06,
  0x0a, 0xee, 0xfc, 0x15, 0x0e, 0xfe, 0x22, 0x06, 0x26, 0x08, 0x16, 0x08,
  0x1a, 0x2d, 0x09, 0x16, 0x12, 0xfe, 0xf6, 0x08, 0xf9, 0xf8, 0x0a, 0x07,
  0x1f, 0xfa, 0xff, 0xfe, 0x13, 0x09, 0x0a, 0x0d, 0x22, 0xf7, 0x04, 0xfc,
  0x00, 0x08, 0x05, 0x12, 0x13, 0x0e, 0x11, 0x01, 0x19, 0xfc, 0x17, 0x0c,
  0x12, 0xf2, 0x07, 0xfc, 0xf9, 0xfc, 0xfe, 0x07, 0x11, 0x0b, 0x13, 0x06,
  0x0e, 0xfd, 0x0a, 0x02, 0x10, 0xfd, 0xf3, 0x02, 0x01, 0xf1, 0x0a, 0x16,
  0x0f, 0xf1, 0x09, 0x08, 0x0f, 0x01, 0x04, 0xfb, 0xf6, 0x00, 0xf9, 0xeb,
  0xf6, 0xe9, 0x0c, 0x08, 0x0b, 0x0d, 0x07, 0x09, 0x02, 0xff, 0x18, 0x07,
  0xf2, 0xf8, 0x01, 0xe3, 0xf6, 0xf8, 0x02, 0x16, 0x21, 0x0f, 0x06, 0x01,
  0xf9, 0xfd, 0x0a, 0x03, 0xf7, 0xf1, 0x02, 0xe9, 0x02, 0x0c, 0xfc, 0x23,
  0x02, 0x0b, 0x0f, 0x06, 0xff, 0xf8, 0xf8, 0x08, 0x00, 0xf4, 0x06, 0xf6,
  0xe9, 0x02, 0xf7, 0x0c, 0x1f, 0xfb, 0x00, 0x02, 0x06, 0x03, 0xee, 0xfb,
  0xff, 0xf1, 0x12, 0xf2, 0xe7, 0xeb, 0x09, 0x01, 0x0c, 0xfd, 0xfa, 0xfe,
  0xf6, 0xf9, 0xec, 0xfb, 0xe4, 0xe9, 0x12, 0xe9, 0xf0, 0xf4, 0xee, 0xf3,
  0xe9, 0x01, 0x02, 0xfe, 0xf6, 0xfe, 0xf7, 0x01, 0xf1, 0xfe, 0xf4, 0xe2,
  0xf8, 0xf2, 0xe8, 0x00, 0xff, 0xfa, 0xed, 0x06, 0xd8, 0x00, 0xeb, 0xfa,
  0xe5, 0xe5, 0xff, 0xed, 0xe3, 0xf9, 0xee, 0xe9, 0xf0, 0x06, 0xee, 0xfd,
  0xff, 0xfb, 0xce, 0xf8, 0xf5, 0xff, 0xf2, 0xf3, 0xed, 0xfe, 0xe8, 0xe7,
  0xf9, 0xfc, 0xf1, 0x01, 0xe3, 0xfb, 0xfc, 0x02, 0xf8, 0xe9, 0x03, 0xdd,
  0xe5, 0xe9, 0xe8, 0xd6, 0xf7, 0xe3, 0xfe, 0x02, 0xf9, 0xf7, 0xfb, 0xfa,
  0x06, 0xfe, 0xfb, 0xe4, 0xec, 0xf2, 0xde, 0xdf, 0x08, 0xf0, 0xf3, 0x01,
  0xf4, 0xf3, 0x0c, 0xf3, 0x09, 0xf8, 0xfb, 0xe4, 0xe9, 0x05, 0xe8, 0xeb,
  0xec, 0xf4, 0xf5, 0x07, 0xf6, 0xf6, 0xeb, 0x04, 0x01, 0xf5, 0x09, 0xdf,
  0xea, 0xef, 0xf0, 0xe5, 0x05, 0xee, 0xfc, 0x09, 0xe5, 0xfc, 0xe3, 0xf6,
  0x03, 0x08, 0x01, 0xf2, 0xec, 0xef, 0xe4, 0xe7, 0x13, 0xe9, 0x02, 0x05,
  0xe5, 0xfb, 0xfa, 0xfd, 0x11, 0xf1, 0xff, 0xea, 0xec, 0xfc, 0xf5, 0xe8,
  0xff, 0xeb, 0xfa, 0x04, 0xf6, 0xf7, 0x04, 0x03, 0x02, 0xf3, 0x08, 0xd8,
  0xf3, 0xfa, 0xfd, 0xf8, 0x10, 0xfe, 0x00, 0x03, 0xf1, 0x01, 0x0f, 0x05,
  0x01, 0xf2, 0x0c, 0xe2, 0xe2, 0xe1, 0xe8, 0xea, 0x1e, 0x03, 0xfa, 0x03,
  0xed, 0x01, 0x01, 0x05, 0x00, 0x06, 0x12, 0xd3, 0xe7, 0xe6, 0xfe, 0x0b,
  0xff, 0xf6, 0xec, 0x00, 0xf8, 0x02, 0xf8, 0x03, 0xf3, 0xec, 0x0f, 0xdd,
  0xe7, 0xec, 0xf7, 0x17, 0xff, 0xfd, 0xec, 0x07, 0xf4, 0x03, 0xee, 0xfa,
  0xef, 0x05, 0xfb, 0xee, 0xf0, 0xef, 0xe9, 0xfe, 0xf2, 0xd3, 0xf2, 0xfe,
  0xee, 0x08, 0x03, 0x0a, 0xe3, 0xf7, 0x00, 0xe7, 0xf9, 0xec, 0xe4, 0x05,
  0xfb, 0xf8, 0xf8, 0x06, 0x08, 0x0a, 0x01, 0x07, 0xe3, 0xfd, 0xf6, 0xdf,
  0xfb, 0xf3, 0xfa, 0xf9, 0xea, 0xef, 0x05, 0x00, 0x07, 0x05, 0x0c, 0xfc,
  0xd3, 0xf7, 0xf8, 0xe8, 0xe5, 0xf2, 0xec, 0x16, 0xee, 0xe3, 0x07, 0xff,
  0x0b, 0x02, 0x08, 0x04, 0xe1, 0x01, 0xe6, 0xf2, 0xf1, 0xfd, 0xe8, 0x0b,
  0xfb, 0xd7, 0xfe, 0x04, 0x02, 0x04, 0x09, 0x04, 0xed, 0x01, 0xef, 0xee,
  0xed, 0xf1, 0xec, 0x0a, 0xea, 0xe3, 0xf0, 0xff, 0xea, 0xfc, 0xee, 0x01,
  0xda, 0x01, 0xdc, 0xee, 0xfd, 0x02, 0xf6, 0x09, 0xf0, 0xdc, 0xeb, 0x00,
  0x05, 0x07, 0x05, 0xf8, 0xdf, 0x11, 0xe2, 0xe8, 0xda, 0xea, 0xee, 0xfc,
  0xfc, 0xf5, 0xe0, 0x03, 0xfe, 0x05, 0x00, 0xee, 0xeb, 0x15, 0xff, 0xec,
  0xfa, 0x09, 0xfe, 0xef, 0xf1, 0xf7, 0xee, 0xfd, 0xf5, 0x03, 0xf3, 0x00,
  0xf2, 0x0a, 0xf8, 0xed, 0xfd, 0x05, 0xfb, 0xf9, 0xf6, 0xfb, 0xf2, 0xfd,
  0x0e, 0x03, 0x08, 0xf2, 0xfe, 0x14, 0x02, 0xe2, 0xfe, 0x03, 0x01, 0xf8,
  0xfa, 0x01, 0xf8, 0xfd, 0xf9, 0x02, 0xea, 0x05, 0xff, 0xf7, 0x04, 0xdf,
  0xf1, 0xfd, 0x07, 0x1b, 0xe3, 0xf8, 0xff, 0x01, 0xfa, 0xf8, 0xfe, 0xf7,
  0xfb, 0xfb, 0xf7, 0xef, 0xf9, 0x00, 0xf7, 0x0e, 0xfb, 0xfc, 0x00, 0x02,
  0x0c, 0xfb, 0x02, 0x03, 0xec, 0x0d, 0xfd, 0xea, 0xf8, 0x05, 0xf6, 0xff,
  0xf6, 0x01, 0x07, 0x02, 0x01, 0xf5, 0xff, 0xf9, 0xfd, 0xfe, 0xf9, 0xe1,
  0x11, 0x02, 0xee, 0x04, 0xe8, 0x02, 0xe3, 0x01, 0x07, 0xf3, 0x12, 0xf9,
  0xf8, 0x14, 0xf0, 0xe1, 0xea, 0xf7, 0xf4, 0x22, 0xe9, 0xff, 0xf8, 0xfc,
  0x16, 0xf2, 0xf0, 0xfd, 0xfc, 0xfa, 0xdb, 0xd5, 0xe6, 0xfd, 0xfa, 0x06,
  0x02, 0xf9, 0x01, 0xff, 0x12, 0xf5, 0x15, 0xfa, 0xf5, 0xfc, 0xea, 0xd6,
  0x02, 0xf3, 0xef, 0x14, 0xf9, 0x03, 0x00, 0x05, 0x0a, 0xfa, 0x20, 0xf9,
  0x04, 0xf6, 0xe8, 0xce, 0xed, 0xf9, 0xea, 0x07, 0xfb, 0xf7, 0x0e, 0xfe,
  0xfb, 0xff, 0x18, 0x00, 0xfc, 0xfb, 0xe8, 0xe9, 0xf0, 0x08, 0xfa, 0xf3,
  0xfd, 0xf7, 0x05, 0xff, 0xfe, 0x00, 0x1c, 0xfc, 0xf8, 0x02, 0xfd, 0xdd,
  0xe4, 0xf4, 0xf5, 0x19, 0x1b, 0x0b, 0xf5, 0xfd, 0x09, 0x0d, 0x18, 0xfa,
  0x03, 0xf4, 0x02, 0xd4, 0xfb, 0xef, 0xe1, 0xf4, 0x09, 0x15, 0xeb, 0x06,
  0x0c, 0x0c, 0x1d, 0x00, 0xff, 0x12, 0x08, 0xd8, 0xf5, 0xfe, 0xf1, 0x0a,
  0x17, 0xee, 0xf2, 0x00, 0x07, 0x0e, 0xfc, 0xfe, 0xf9, 0x06, 0x05, 0xd9,
  0x02, 0xfc, 0xf1, 0xfc, 0x1e, 0x11, 0xf6, 0x03, 0xff, 0x1e, 0x0c, 0xfd,
  0xfc, 0x1f, 0x06, 0xe5, 0x13, 0x00, 0xdc, 0x07, 0x12, 0x26, 0xd8, 0x07,
  0x16, 0x1c, 0xfa, 0x0e, 0xed, 0x24, 0x0e, 0xf2, 0x09, 0x0b, 0xe7, 0xeb,
  0xfa, 0xfc, 0xe5, 0x00, 0x06, 0x23, 0x12, 0xf9, 0xd5, 0x05, 0x03, 0x94,
  0xff, 0xf0, 0x9e, 0xd6, 0x02, 0xe0, 0xf2, 0x07, 0xff, 0x0d, 0xff, 0xf8,
  0xe1, 0x09, 0x0d, 0xcd, 0xf8, 0xf7, 0xb4, 0xd9, 0x07, 0xf7, 0xf2, 0xff,
  0xed, 0x06, 0xff, 0x02, 0x11, 0xf2, 0x08, 0xd7, 0xfc, 0x05, 0xc8, 0xe5,
  0xf5, 0xee, 0x18, 0xfa, 0x01, 0xf9, 0xf0, 0xf6, 0x0b, 0x0d, 0x18, 0xe8,
  0xfd, 0x06, 0xf7, 0xe4, 0x10, 0xfb, 0x06, 0xfd, 0x06, 0xf7, 0x06, 0xfe,
  0x06, 0x00, 0x13, 0xf1, 0xfa, 0xfd, 0xf9, 0xfb, 0x06, 0xed, 0xfa, 0x00,
  0x02, 0xfe, 0xf1, 0xfe, 0x04, 0x08, 0x16, 0xea, 0xfc, 0xf9, 0x05, 0x03,
  0x08, 0xfc, 0x00, 0xfc, 0xf7, 0xfb, 0x1a, 0x04, 0xfd, 0xfe, 0x1d, 0xf4,
  0xf6, 0xf6, 0xed, 0xf4, 0x1c, 0x15, 0x06, 0x00, 0x0c, 0xfa, 0x1d, 0xfc,
  0x02, 0xfa, 0x1f, 0xf1, 0xf3, 0xe1, 0xf5, 0x04, 0x07, 0x0a, 0x01, 0xfc,
  0xfc, 0xf7, 0x07, 0x04, 0x02, 0x08, 0x1f, 0xdb, 0xe3, 0xea, 0xf8, 0x16,
  0x08, 0xed, 0x0b, 0x06, 0xfd, 0xfd, 0x05, 0x03, 0xf7, 0x00, 0x10, 0xd5,
  0xf8, 0xf5, 0x00, 0x0d, 0xe6, 0x03, 0x00, 0x05, 0x00, 0xff, 0x1b, 0xfc,
  0xf9, 0x07, 0x0c, 0xcf, 0xe5, 0xee, 0xf4, 0x08, 0xfd, 0xeb, 0xfb, 0x03,
  0xf7, 0x04, 0x07, 0x00, 0xed, 0x00, 0x05, 0xdf, 0xda, 0xe7, 0xec, 0xff,
  0xf3, 0xee, 0x1c, 0x01, 0xfe, 0x07, 0x01, 0xfc, 0xf1, 0x04, 0x05, 0xe8,
  0xe7, 0xe4, 0xed, 0xf4, 0x00, 0xee, 0x1a, 0x04, 0xfe, 0x04, 0x0d, 0x01,
  0xfd, 0x03, 0x00, 0xe7, 0xec, 0xe6, 0xe7, 0xfd, 0xef, 0xe6, 0x01, 0x06,
  0xf3, 0x02, 0xff, 0xff, 0xf5, 0x00, 0x0d, 0xe3, 0xea, 0xeb, 0xf3, 0x12,
  0xf3, 0xed, 0xf9, 0x05, 0xfd, 0x02, 0x06, 0xf9, 0xf4, 0xfd, 0x06, 0xe2,
  0xf3, 0xe8, 0xe9, 0xf8, 0xf9, 0xf7, 0xfb, 0xfe, 0xfa, 0x06, 0xfa, 0x00,
  0xeb, 0xfd, 0xfc, 0xd7, 0xf1, 0xef, 0xf0, 0xf7, 0xf3, 0x03, 0xfe, 0x03,
  0xf4, 0xfa, 0x07, 0x01, 0xea, 0xfd, 0x0e, 0xd4, 0xea, 0xe1, 0xf8, 0xfe,
  0x08, 0xfe, 0xf4, 0x05, 0x08, 0xff, 0x0d, 0xfe, 0xf2, 0xff, 0x0b, 0xe3,
  0xf7, 0xf0, 0xfb, 0xfe, 0xf6, 0x04, 0xf4, 0x08, 0x00, 0xfa, 0x0f, 0xfe,
  0xee, 0x03, 0x19, 0xd5, 0xfb, 0xe7, 0xfa, 0xfc, 0xfd, 0xf6, 0x08, 0x05,
  0xff, 0xf1, 0x13, 0xfc, 0xff, 0x09, 0x11, 0xe2, 0x03, 0x06, 0xf9, 0x02,
  0xed, 0xfd, 0xfd, 0x07, 0x0e, 0xf2, 0x1b, 0x02, 0xfd, 0xfd, 0x15, 0xe0,
  0x04, 0xef, 0x08, 0x04, 0xf2, 0xfc, 0xee, 0x01, 0x14, 0xf1, 0x00, 0xfa,
  0x0d, 0x15, 0x0d, 0xc7, 0xf8, 0xf1, 0xf7, 0x0a, 0xf7, 0x0e, 0xf1, 0x09,
  0x0a, 0xe6, 0x1a, 0xf7, 0x06, 0xfe, 0x0b, 0xd2, 0xfa, 0xf1, 0xf4, 0x0c,
  0x00, 0x08, 0xf5, 0x09, 0x06, 0xe5, 0xf9, 0xfb, 0x0d, 0xfb, 0x0d, 0xd4,
  0xf7, 0xfc, 0xf5, 0x04, 0xf2, 0xec, 0xec, 0xff, 0xf0, 0xeb, 0xfa, 0x01,
  0x0e, 0x07, 0x11, 0xd4, 0xf1, 0x00, 0xfc, 0xf7, 0x08, 0xe0, 0xf1, 0x03,
  0xf1, 0xe6, 0x1f, 0x01, 0x12, 0xfd, 0x08, 0xd6, 0xe5, 0xf0, 0xfe, 0xf8,
  0xfe, 0x07, 0xf3, 0x07, 0xf7, 0xf4, 0xfc, 0x00, 0x15, 0x0b, 0x12, 0xce,
  0xf1, 0xe9, 0xf3, 0x24, 0xf5, 0xfa, 0xec, 0x04, 0x02, 0xf2, 0x11, 0xfb,
  0x04, 0x08, 0x07, 0xc9, 0xee, 0xf1, 0xef, 0x05, 0x13, 0xe6, 0xfc, 0x05,
  0xff, 0xf7, 0x0a, 0x05, 0x11, 0xf1, 0x06, 0xd3, 0xf1, 0xf9, 0xf4, 0x0e,
  0xfa, 0x07, 0xf0, 0x09, 0x0b, 0xf8, 0xfb, 0x08, 0x0f, 0x04, 0x01, 0xcd,
  0xeb, 0xf3, 0xea, 0xfe, 0xe8, 0xef, 0xfd, 0x04, 0x0c, 0xfd, 0x17, 0x00,
  0xfe, 0x16, 0x06, 0xcf, 0xf8, 0x09, 0xef, 0x14, 0x02, 0x06, 0x09, 0x02,
  0x0a, 0x04, 0x18, 0x04, 0x02, 0x15, 0xf5, 0xe0, 0x03, 0xfa, 0xec, 0xef,
  0x02, 0x0b, 0xff, 0x0a, 0x16, 0xff, 0x15, 0x0c, 0xfc, 0x00, 0x04, 0xec,
  0x08, 0xff, 0xef, 0x07, 0x05, 0x1c, 0xf2, 0x01, 0xf1, 0x03, 0xfe, 0x04,
  0xfe, 0x0d, 0x0d, 0xf0, 0x07, 0xfb, 0xf7, 0x04, 0x0b, 0xfd, 0x01, 0x01,
  0xf9, 0x09, 0x06, 0x02, 0x08, 0x01, 0x10, 0x02, 0xfa, 0xf5, 0xfd, 0x15,
  0x06, 0x07, 0xfb, 0x07, 0xfd, 0x0c, 0x12, 0x05, 0x01, 0x09, 0x13, 0xfd,
  0x0b, 0xfe, 0xf5, 0x04, 0x17, 0xf1, 0x09, 0x08, 0x04, 0x1a, 0x07, 0x0f,
  0x01, 0xfc, 0x07, 0x0f, 0x00, 0x00, 0xf2, 0x15, 0x08, 0xfc, 0x03, 0x08,
  0xf7, 0x29, 0x10, 0x0e, 0xfb, 0xf1, 0x18, 0x0b, 0x05, 0xf4, 0xf4, 0x12,
  0x10, 0x00, 0xfd, 0x04, 0x01, 0x35, 0xfe, 0x04, 0x08, 0xfe, 0x15, 0x10,
  0xfd, 0xfe, 0xf7, 0xf1, 0x00, 0x12, 0xff, 0x03, 0x07, 0x2d, 0x05, 0x14,
  0xfa, 0x05, 0xfc, 0x0e, 0xfe, 0x0a, 0xed, 0x19, 0xfa, 0x03, 0x0a, 0x04,
  0x04, 0x2d, 0x01, 0xfa, 0x09, 0xfe, 0x0b, 0x0c, 0x03, 0x03, 0xf2, 0xfd,
  0xef, 0xfc, 0x00, 0x04, 0x05, 0x23, 0x04, 0x0c, 0xfc, 0xf9, 0xfd, 0x06,
  0xfa, 0x05, 0xee, 0xff, 0xfe, 0x0f, 0x04, 0xfd, 0x08, 0x15, 0x02, 0x02,
  0x02, 0x00, 0xf6, 0x0e, 0x11, 0x10, 0xf6, 0x07, 0x0d, 0xfb, 0xfd, 0x04,
  0x1b, 0x15, 0x13, 0x0c, 0x03, 0x05, 0x06, 0x0a, 0x0d, 0x07, 0xfb, 0x09,
  0x12, 0x14, 0x11, 0x0f, 0x10, 0x13, 0x05, 0x05, 0x0b, 0xfc, 0xef, 0x0b,
  0x17, 0x11, 0x01, 0x01, 0x0b, 0x0b, 0x1c, 0x04, 0x0b, 0x17, 0x0b, 0xf4,
  0x13, 0xe4, 0xfa, 0x11, 0x05, 0x0e, 0x0a, 0x00, 0x08, 0x04, 0x20, 0x08,
  0x1f, 0x1d, 0x1a, 0xf4, 0x1c, 0xf1, 0xf3, 0x11, 0xfc, 0x00, 0x07, 0x03,
  0xfd, 0x0a, 0x1c, 0x02, 0xfe, 0x17, 0x1a, 0x0c, 0x17, 0xf2, 0xeb, 0x0f,
  0xfe, 0xf3, 0x09, 0x02, 0x0d, 0x0e, 0x16, 0x05, 0x0b, 0x26, 0x06, 0x0b,
  0x0f, 0xf1, 0x00, 0x07, 0xfd, 0xf4, 0x13, 0x18, 0x0d, 0x0f, 0x27, 0x09,
  0x17, 0x12, 0x14, 0xfd, 0x05, 0xf1, 0x01, 0xfd, 0x04, 0xfa, 0x16, 0x0e,
  0x07, 0x1b, 0x07, 0x04, 0x0d, 0x10, 0x17, 0xff, 0x03, 0xcb, 0x04, 0xe6,
  0xea, 0xd4, 0x1b, 0x07, 0x0a, 0x09, 0x07, 0xfd, 0x1b, 0xd7, 0x04, 0xf8,
  0xfa, 0x0f, 0x1c, 0xf9, 0x10, 0x00, 0x03, 0x0a, 0x0d, 0x10, 0x02, 0xfb,
  0x03, 0xd9, 0x00, 0xf5, 0xfe, 0xf4, 0x0d, 0x05, 0x08, 0x03, 0xfd, 0xee,
  0xff, 0x0b, 0xfb, 0xfd, 0x05, 0xdb, 0xf7, 0x00, 0xf0, 0x06, 0x0a, 0x03,
  0xf8, 0xeb, 0x02, 0x0b, 0x12, 0xfe, 0x00, 0xff, 0x0c, 0xeb, 0xfb, 0xfa,
  0xf5, 0x07, 0x03, 0x01, 0xf4, 0xf2, 0xeb, 0x05, 0x0e, 0xfa, 0xff, 0xfd,
  0xf7, 0xe7, 0x02, 0x00, 0xf6, 0xfb, 0xf6, 0xfc, 0xf8, 0xfb, 0xe8, 0xf4,
  0xff, 0x0c, 0x01, 0x03, 0xf2, 0xeb, 0x01, 0x05, 0xfd, 0x0e, 0x05, 0xf7,
  0xff, 0xfc, 0xe4, 0xfc, 0x05, 0xf7, 0x01, 0xfd, 0x03, 0xed, 0x00, 0x03,
  0x02, 0x00, 0x0f, 0xfc, 0xfd, 0xfb, 0xef, 0xe4, 0xef, 0x09, 0xff, 0xfc,
  0x13, 0xf6, 0x08, 0x01, 0xfa, 0x0e, 0xfa, 0xf3, 0x0f, 0xfb, 0xf1, 0xfc,
  0x11, 0xfb, 0x09, 0xfb, 0x08, 0xf7, 0x05, 0x04, 0xf1, 0x0c, 0x0c, 0xfe,
  0xfa, 0xf2, 0xf4, 0x0d, 0xfe, 0x08, 0x04, 0x08, 0x15, 0xf4, 0x13, 0xff,
  0xf9, 0x06, 0x00, 0x03, 0xfa, 0x0b, 0xf5, 0xfe, 0x02, 0x03, 0x07, 0x02,
  0x0f, 0xfb, 0x06, 0x07, 0xf5, 0x0b, 0xf8, 0xfc, 0x07, 0x01, 0xfd, 0xff,
  0x01, 0x0b, 0xfb, 0x01, 0x14, 0xf7, 0x07, 0x02, 0xea, 0xfe, 0xed, 0x03,
  0xf3, 0x00, 0x00, 0x04, 0xfc, 0xfb, 0x05, 0x03, 0x0c, 0xff, 0xef, 0x00,
  0xe7, 0x05, 0xf0, 0xfb, 0xf4, 0xfb, 0x01, 0x01, 0xf2, 0xee, 0x08, 0x02,
  0x0f, 0xfd, 0xff, 0xfd, 0xf4, 0xf5, 0xe7, 0xfa, 0xfc, 0xfd, 0xf3, 0xf6,
  0xeb, 0xf3, 0x0b, 0x09, 0x0b, 0xf6, 0x05, 0x01, 0xfd, 0xff, 0xed, 0xf9,
  0xef, 0xf7, 0xe9, 0xfe, 0xfd, 0xf5, 0x05, 0x03, 0xfb, 0xfc, 0xfd, 0x04,
  0xfb, 0x0c, 0xf9, 0xf4, 0xfc, 0xf9, 0xf3, 0xfa, 0xf9, 0xfd, 0xfb, 0xfb,
  0xff, 0xf9, 0x16, 0xfc, 0xf8, 0x0e, 0xfe, 0xef, 0x07, 0x0f, 0xf3, 0xf4,
  0xf2, 0x00, 0xfb, 0x03, 0xfd, 0xf8, 0xf4, 0xfd, 0x05, 0x00, 0x01, 0x04,
  0xf6, 0xff, 0xf5, 0xf8, 0xf2, 0xf7, 0xff, 0x04, 0x10, 0xfa, 0xef, 0xfb,
  0xf6, 0xfb, 0xfa, 0xfa, 0xf7, 0xfb, 0xf0, 0x06, 0xf4, 0xee, 0x00, 0xfb,
  0x04, 0xf7, 0xf9, 0x01, 0xf0, 0xf7, 0xf9, 0xf4, 0xf0, 0xf8, 0xf5, 0x00,
  0xe7, 0xfc, 0xfb, 0xfb, 0x0a, 0xf4, 0xfc, 0xfe, 0xf1, 0xfc, 0xea, 0xf8,
  0xe5, 0xec, 0xec, 0xf8, 0xf6, 0xf2, 0x03, 0x06, 0x03, 0xf5, 0xec, 0x05,
  0xee, 0x01, 0xe8, 0xf3, 0xe8, 0xea, 0xe6, 0xf4, 0xf5, 0xf7, 0xfb, 0x05,
  0x02, 0xf4, 0xfc, 0x08, 0xe9, 0xfa, 0xe7, 0xf0, 0xf2, 0xf1, 0xee, 0xfa,
  0xfa, 0xfc, 0xfa, 0x07, 0x04, 0xfd, 0xfd, 0xff, 0xf0, 0x05, 0xf6, 0xf1,
  0xf1, 0xf2, 0xf1, 0xfc, 0xfb, 0xed, 0xfd, 0x03, 0x10, 0xfd, 0xff, 0xff,
  0xeb, 0x00, 0xef, 0xf3, 0xeb, 0xfc, 0xeb, 0xf4, 0xeb, 0xef, 0xf7, 0x01,
  0x02, 0xf6, 0x06, 0x06, 0xe9, 0x00, 0xee, 0xf8, 0xe9, 0xf8, 0xe9, 0xff,
  0x08, 0x02, 0xff, 0x04, 0x03, 0xf6, 0xfa, 0x06, 0xf3, 0xfa, 0xf2, 0xf2,
  0xed, 0xec, 0xe9, 0xf9, 0x01, 0xfd, 0xfa, 0xff, 0x07, 0xfe, 0xff, 0x02,
  0xe7, 0xff, 0xe1, 0xec, 0xf8, 0xf6, 0xe9, 0x02, 0xf1, 0x08, 0xf5, 0x03,
  0xf8, 0xfa, 0xf7, 0x09, 0xde, 0x0f, 0xeb, 0xf3, 0x09, 0x0f, 0xee, 0x07,
  0x03, 0x0a, 0x00, 0x04, 0xed, 0xfe, 0x08, 0x08, 0xe3, 0x07, 0xe1, 0xf6,
  0x04, 0x06, 0xe2, 0xfb, 0xfc, 0x0d, 0xfb, 0xfd, 0x16, 0xff, 0xf2, 0x02,
  0xf3, 0x0a, 0xe9, 0xfb, 0x03, 0x06, 0xf0, 0xff, 0x06, 0xfe, 0xfd, 0x05,
  0x0d, 0xfd, 0x15, 0x0a, 0x01, 0x0b, 0xf4, 0x05, 0x1b, 0x0c, 0xf1, 0xf8,
  0xff, 0x03, 0xfc, 0x00, 0x0f, 0xf4, 0xf7, 0x02, 0xfe, 0x08, 0xed, 0x04,
  0x0b, 0x07, 0xf4, 0x08, 0x04, 0x14, 0x00, 0x00, 0x0d, 0xef, 0x00, 0xf5,
  0xf8, 0xfb, 0xfc, 0x0c, 0x06, 0x0a, 0xef, 0x06, 0xfd, 0xfe, 0x0d, 0x04,
  0x11, 0xf3, 0x0a, 0xfe, 0xfe, 0x08, 0xf4, 0x0e, 0x0a, 0x05, 0x04, 0xf8,
  0x0f, 0xf5, 0x09, 0x02, 0xf3, 0xe8, 0x0a, 0x13, 0x09, 0x0e, 0x05, 0x0a,
  0x03, 0xfd, 0x0d, 0xfa, 0x0c, 0xfe, 0x07, 0x05, 0xfb, 0xe1, 0xf4, 0xfb,
  0x00, 0x00, 0xfa, 0x05, 0xf8, 0xf6, 0xfc, 0x06, 0x13, 0x11, 0x07, 0xfe,
  0x06, 0xf2, 0x07, 0xfa, 0x04, 0xf5, 0x04, 0x05, 0x07, 0xff, 0xfd, 0x12,
  0x08, 0x08, 0xfb, 0xff, 0xf9, 0xf0, 0x01, 0xff, 0x03, 0xfa, 0x05, 0x0b,
  0xf9, 0xfd, 0xf7, 0xfe, 0x00, 0xf0, 0xfb, 0x05, 0x08, 0xef, 0xed, 0x03,
  0xf5, 0xff, 0xfc, 0x04, 0xf4, 0x07, 0xf8, 0x09, 0x16, 0xfd, 0x00, 0xfc,
  0x02, 0xf4, 0x0d, 0xfe, 0x01, 0xff, 0x09, 0x09, 0xfc, 0xf3, 0x00, 0xfb,
  0x06, 0xf8, 0x00, 0x06, 0xf8, 0xf5, 0x01, 0xfd, 0xfe, 0x08, 0x07, 0x07,
  0x01, 0xfb, 0xfb, 0xf4, 0xfb, 0x10, 0x00, 0x02, 0xf7, 0x00, 0xf9, 0x03,
  0xf0, 0x03, 0x08, 0xfd, 0xf2, 0xf8, 0xf8, 0xdf, 0x0d, 0xf5, 0xfa, 0xfe,
  0x02, 0xf9, 0x0a, 0x09, 0x01, 0xf8, 0x07, 0x04, 0x01, 0xe7, 0xfb, 0x04,
  0xf9, 0x09, 0xfd, 0x07, 0xf7, 0xfc, 0xf5, 0x02, 0xf7, 0x04, 0xf8, 0x03,
  0xf4, 0x00, 0xff, 0x12, 0x10, 0xf1, 0xf0, 0xfd, 0xf9, 0xfd, 0xf8, 0x07,
  0xfe, 0x0f, 0x04, 0xfe, 0xfc, 0xf7, 0xfa, 0x02, 0x0f, 0x12, 0x02, 0x04,
  0xfd, 0xef, 0x1b, 0xfd, 0x05, 0x08, 0xfe, 0x05, 0xff, 0xf4, 0xfc, 0xfc,
  0x10, 0x05, 0x08, 0x06, 0x08, 0xe2, 0x0e, 0xfc, 0x19, 0x00, 0x16, 0xff,
  0x18, 0x09, 0xff, 0x09, 0x12, 0x0b, 0xf8, 0xfb, 0x07, 0xe5, 0xf8, 0xfc,
  0x1c, 0x14, 0x1a, 0xf1, 0x0d, 0x01, 0xfa, 0x06, 0x03, 0xf7, 0xf2, 0x01,
  0x11, 0xe0, 0x0e, 0x04, 0x0a, 0x0b, 0x17, 0xf5, 0x00, 0x01, 0xf5, 0xfa,
  0x11, 0xef, 0xfc, 0x05, 0x1a, 0xe6, 0xfc, 0x0b, 0x01, 0x15, 0x0a, 0xf9,
  0x11, 0x13, 0xf4, 0x06, 0x10, 0x17, 0x0f, 0x04, 0x12, 0xe2, 0x16, 0x09,
  0xff, 0x0e, 0xe6, 0x08, 0x12, 0x14, 0xf3, 0x11, 0xef, 0xdb, 0xd3, 0x04,
  0xf4, 0x61, 0xed, 0xec, 0xd7, 0x0b, 0xd4, 0xb0, 0xf5, 0xf4, 0xa6, 0x05,
  0xf6, 0xd5, 0xfb, 0x02, 0xed, 0x37, 0xe3, 0xee, 0xdc, 0xfd, 0xed, 0xc6,
  0xf8, 0xe7, 0xd8, 0xfe, 0xe7, 0xf5, 0xf3, 0x0a, 0xf3, 0x18, 0x1c, 0x01,
  0x03, 0xfc, 0xf8, 0xd9, 0xe7, 0xfd, 0xee, 0xf8, 0xf5, 0xe3, 0xf0, 0x01,
  0xfe, 0xf7, 0xfd, 0xf7, 0xff, 0x11, 0x07, 0xde, 0xfe, 0xf9, 0xf8, 0x04,
  0xed, 0xef, 0x06, 0x08, 0x10, 0xf2, 0xeb, 0x01, 0x02, 0x13, 0x04, 0xed,
  0xf8, 0xfb, 0xfd, 0xfb, 0xf5, 0xfa, 0xfc, 0x0c, 0x10, 0xe2, 0xfa, 0xf5,
  0xfb, 0x08, 0x0b, 0xf1, 0x03, 0x0e, 0x0a, 0x0c, 0xe5, 0x07, 0x00, 0x0b,
  0x07, 0xe3, 0xf1, 0xf4, 0x04, 0x03, 0x0c, 0xed, 0xe4, 0xf4, 0xf5, 0x0f,
  0xf5, 0xf4, 0xf1, 0x07, 0x15, 0xde, 0xfc, 0xff, 0xfe, 0x1c, 0x08, 0xe6,
  0xe6, 0xf5, 0xfa, 0x17, 0x03, 0x02, 0xf3, 0x0a, 0x02, 0xd8, 0x03, 0x01,
  0x0a, 0x0f, 0x02, 0xd9, 0xed, 0x09, 0xf4, 0x04, 0xe9, 0xeb, 0xf6, 0x02,
  0xf6, 0xe5, 0xf6, 0xff, 0x15, 0xfb, 0x09, 0xd5, 0xe8, 0xf4, 0xfa, 0x01,
  0xf8, 0x0c, 0xea, 0x03, 0x06, 0xe8, 0x15, 0x07, 0x1a, 0x10, 0x0d, 0xd1,
  0xe4, 0xf4, 0xf3, 0x0b, 0xfd, 0xfa, 0xf5, 0x05, 0x02, 0xef, 0xfc, 0x01,
  0x17, 0x09, 0x08, 0xdb, 0xfa, 0x01, 0xf9, 0x17, 0x08, 0xf6, 0xee, 0x05,
  0xfd, 0xf2, 0x00, 0x03, 0x07, 0xff, 0x00, 0xc9, 0xf6, 0xf7, 0xee, 0xfb,
  0xf2, 0x06, 0xf8, 0x07, 0xe5, 0xfe, 0x04, 0x00, 0x0f, 0xf9, 0xf2, 0xd2,
  0xe8, 0x04, 0xf3, 0x04, 0xf6, 0xee, 0x00, 0x07, 0xfd, 0x00, 0x0e, 0x01,
  0xfe, 0xf9, 0xea, 0xdc, 0xf3, 0xf2, 0xf1, 0x1a, 0x17, 0x0c, 0xff, 0x08,
  0x07, 0x09, 0xf8, 0xfd, 0xfb, 0x11, 0xef, 0xd1, 0xf6, 0x06, 0xea, 0x09,
  0xf2, 0x09, 0x05, 0x01, 0xfd, 0x0c, 0x1d, 0x00, 0x01, 0x0e, 0x00, 0xec,
  0x03, 0x03, 0xf1, 0xec, 0xff, 0x0a, 0xff, 0x07, 0x0e, 0x01, 0x1a, 0x02,
  0xfe, 0x06, 0x03, 0xec, 0x02, 0x04, 0xe9, 0xe5, 0x0c, 0x2c, 0xfd, 0x0b,
  0x01, 0x0e, 0x09, 0x05, 0xf0, 0x06, 0xf4, 0xf5, 0x04, 0x00, 0xe5, 0x12,
  0x1a, 0x13, 0x16, 0x08, 0x08, 0x0a, 0x07, 0x0c, 0xf4, 0x06, 0xf9, 0xfb,
  0x0c, 0x0c, 0xe7, 0x00, 0x12, 0x15, 0x01, 0x02, 0x09, 0x09, 0x13, 0xf9,
  0xd9, 0x06, 0xfd, 0xfc, 0x09, 0x02, 0xee, 0x0d, 0x06, 0x00, 0x08, 0x02,
  0x00, 0x0a, 0x0e, 0x02, 0x02, 0x00, 0x05, 0x08, 0x03, 0x09, 0xf2, 0x0b,
  0xfa, 0x01, 0xfd, 0x06, 0x04, 0x1c, 0x18, 0xfc, 0x0f, 0xf8, 0x11, 0x11,
  0x03, 0x11, 0xef, 0xff, 0xfc, 0x0e, 0xf4, 0x08, 0xfa, 0x1c, 0xfc, 0x0c,
  0x01, 0xfe, 0x0a, 0x0b, 0x00, 0x06, 0xed, 0x04, 0x0e, 0x08, 0xfb, 0xfe,
  0x01, 0x25, 0xed, 0x05, 0xf9, 0xf5, 0x0f, 0x0c, 0x08, 0xfb, 0xf3, 0x00,
  0xf6, 0x05, 0xee, 0x03, 0xf9, 0x31, 0xff, 0x01, 0x0c, 0xfa, 0xf7, 0x11,
  0x04, 0xf9, 0xfb, 0x16, 0xf9, 0x13, 0xf9, 0xff, 0x01, 0x31, 0xfe, 0x07,
  0xff, 0x06, 0x01, 0x0d, 0x08, 0x03, 0x02, 0x17, 0xfd, 0x13, 0x0c, 0x00,
  0x0c, 0x25, 0xfb, 0x09, 0x05, 0xfa, 0xfe, 0x0a, 0x11, 0x0c, 0x04, 0x1d,
  0x06, 0x0d, 0x12, 0x08, 0x04, 0x1e, 0x10, 0x02, 0x19, 0xee, 0x09, 0x0b,
  0x08, 0x05, 0x02, 0x16, 0x14, 0x01, 0x0d, 0x0b, 0x0d, 0x36, 0x12, 0x08,
  0x16, 0xeb, 0x06, 0x06, 0x1c, 0x00, 0xfd, 0x09, 0x12, 0x0a, 0x1e, 0xfa,
  0x03, 0x29, 0x0c, 0xf5, 0x0b, 0xee, 0x0d, 0x05, 0x0e, 0xfd, 0x01, 0x0c,
  0x0d, 0x1b, 0x10, 0x07, 0x11, 0x1f, 0x13, 0x0c, 0x11, 0xf8, 0xf9, 0x0b,
  0x18, 0xf2, 0x08, 0xf9, 0x03, 0x19, 0x18, 0x0d, 0x0e, 0x13, 0x18, 0x06,
  0x13, 0xf3, 0x11, 0x07, 0x0f, 0xfe, 0x0c, 0x0f, 0x07, 0xff, 0x16, 0xff,
  0x0a, 0x0e, 0x02, 0x0f, 0xfa, 0xfa, 0x05, 0x07, 0x0f, 0x0b, 0x0e, 0x06,
  0x15, 0x0f, 0x0f, 0xfe, 0x12, 0x01, 0x11, 0x0b, 0x14, 0xff, 0x07, 0x03,
  0x13, 0x00, 0x0e, 0x14, 0x06, 0x16, 0x09, 0x06, 0x13, 0xfd, 0x0d, 0x00,
  0x0e, 0xf5, 0xff, 0xf5, 0x05, 0xda, 0x02, 0xff, 0x15, 0x09, 0x05, 0xfd,
  0x10, 0x08, 0x0e, 0x0d, 0x07, 0xf8, 0x09, 0xfe, 0x0d, 0xe2, 0x0e, 0x09,
  0x15, 0x01, 0xfb, 0x06, 0x14, 0x00, 0x16, 0x0b, 0x00, 0xf6, 0x0b, 0xf5,
  0x00, 0xe8, 0x09, 0x10, 0x0c, 0x11, 0xfc, 0xfc, 0x0e, 0x06, 0xf7, 0xfe,
  0xfd, 0xff, 0x0c, 0xf2, 0xf4, 0xe8, 0xff, 0xf4, 0x00, 0xfe, 0xfc, 0x05,
  0xf2, 0x09, 0xf0, 0x02, 0xff, 0x01, 0x13, 0xef, 0xf6, 0xd5, 0x09, 0x15,
  0x0d, 0x0a, 0xe6, 0x03, 0x04, 0xfb, 0xf0, 0xfa, 0xed, 0x05, 0x14, 0xef,
  0xf5, 0xde, 0xfe, 0xf4, 0xfd, 0x1e, 0xe8, 0x07, 0x05, 0xfe, 0x07, 0xf6,
  0xf6, 0x02, 0xff, 0xe0, 0xf0, 0xe7, 0xfb, 0xfb, 0x02, 0x05, 0xe7, 0x07,
  0xfe, 0xf8, 0xfc, 0xf7, 0xfe, 0x00, 0x0d, 0xd4, 0xf7, 0xf0, 0xf8, 0x05,
  0x02, 0x10, 0xf4, 0x09, 0x04, 0xf1, 0x07, 0x03, 0x02, 0x13, 0x12, 0xd3,
  0xfc, 0x01, 0xf6, 0xf6, 0x09, 0x0b, 0xfc, 0x07, 0xda, 0xef, 0x11, 0x01,
  0x0b, 0x01, 0x11, 0xd4, 0x04, 0xff, 0xf3, 0x0f, 0x09, 0x05, 0xfe, 0x09,
  0xee, 0xf2, 0xf8, 0xff, 0xfc, 0xf9, 0x05, 0xdb, 0xe0, 0xf0, 0xed, 0x07,
  0xfd, 0xe9, 0xf8, 0x03, 0xee, 0xfb, 0xd8, 0xff, 0x0b, 0x01, 0x0d, 0xec,
  0xee, 0xf3, 0xf7, 0xe4, 0x04, 0xf9, 0xf8, 0x03, 0xe2, 0xf3, 0xd9, 0x02,
  0x08, 0xfa, 0x00, 0xee, 0xf0, 0xfc, 0xf0, 0xd9, 0x00, 0xec, 0xfe, 0xff,
  0xf2, 0xf4, 0xda, 0xfb, 0x0e, 0x01, 0x0c, 0xef, 0xf1, 0xe7, 0xfc, 0xee,
  0x0d, 0xff, 0xff, 0x0b, 0xf1, 0xf8, 0xee, 0xf7, 0x0a, 0xe4, 0x0f, 0xde,
  0xda, 0xf9, 0xdf, 0xdb, 0xf9, 0xfd, 0x02, 0x0b, 0xe1, 0x0e, 0xea, 0xf2,
  0xfc, 0xe2, 0x20, 0xd5, 0xb5, 0xe6, 0xe6, 0xf4, 0x0e, 0xe7, 0xfb, 0x00,
  0xe6, 0x3b, 0xf9, 0xfc, 0xff, 0xc1, 0x30, 0xa4, 0xa8, 0xbf, 0xd3, 0xfe,
  0x30, 0x1d, 0x1c, 0x00, 0x1b, 0x02, 0x0b, 0x07, 0x13, 0x03, 0x23, 0x0a,
  0x0a, 0xf1, 0x13, 0xfa, 0x17, 0x0e, 0xfc, 0x04, 0x27, 0xfd, 0x06, 0xfe,
  0x09, 0xff, 0x03, 0xfc, 0xfb, 0xe0, 0x06, 0x12, 0x22, 0x07, 0x1d, 0x05,
  0x0d, 0xfc, 0x06, 0x0a, 0x0e, 0xee, 0x0c, 0xf6, 0x03, 0xf5, 0x04, 0x12,
  0x13, 0x05, 0x37, 0x02, 0x0b, 0x05, 0x16, 0x08, 0x0a, 0xf1, 0xfa, 0xfc,
  0xe4, 0xff, 0xfd, 0x07, 0x10, 0xec, 0x0d, 0x02, 0x14, 0x0a, 0xf9, 0x0a,
  0x12, 0xf4, 0x0b, 0xef, 0xe2, 0xf2, 0xfa, 0x21, 0x12, 0x01, 0x0c, 0x03,
  0x19, 0xfc, 0x1b, 0x04, 0xfb, 0x01, 0x03, 0xee, 0xf0, 0xf9, 0xfa, 0x0e,
  0x25, 0xf2, 0x00, 0x08, 0xff, 0xfd, 0xfe, 0xf8, 0x01, 0xe7, 0x04, 0xe0,
  0xfa, 0xf2, 0x08, 0x10, 0x14, 0xf2, 0xe6, 0x01, 0xfc, 0x04, 0xfc, 0x04,
  0xfe, 0xfc, 0x08, 0xee, 0xf0, 0xe5, 0x05, 0x12, 0xfa, 0x04, 0xef, 0xfd,
  0xf7, 0x05, 0xf7, 0x0f, 0x01, 0xf2, 0x10, 0xed, 0xf2, 0xf6, 0x0d, 0x2d,
  0x0b, 0x05, 0xec, 0x00, 0xf1, 0x03, 0xf3, 0xfd, 0x03, 0x0d, 0x11, 0xdb,
  0xf4, 0xf6, 0x07, 0x1d, 0x13, 0xee, 0xfa, 0xfd, 0xec, 0x02, 0xfc, 0x0b,
  0xfa, 0xf6, 0x16, 0xe8, 0xe8, 0xf9, 0x08, 0x02, 0x02, 0xf1, 0xf7, 0x08,
  0xf4, 0x04, 0xea, 0xfd, 0x14, 0x0b, 0x1b, 0xe5, 0xf0, 0x02, 0xf8, 0x1e,
  0x03, 0xfd, 0x0a, 0x06, 0xec, 0xf9, 0xf3, 0xfe, 0x05, 0xf8, 0x0e, 0xd7,
  0xed, 0xde, 0xf3, 0xf6, 0x06, 0xef, 0x13, 0x02, 0xf3, 0xf8, 0xec, 0xfd,
  0x0b, 0xf9, 0x1a, 0xe2, 0xee, 0xe0, 0xf8, 0x22, 0x1a, 0x08, 0xf8, 0x06,
  0xf5, 0x02, 0xf3, 0x00, 0x0e, 0x05, 0x11, 0xda, 0xfe, 0xfd, 0xfd, 0x16,
  0x04, 0xf7, 0xf3, 0xfe, 0xf3, 0xfc, 0xf3, 0xfd, 0xf8, 0x0d, 0x1e, 0xe2,
  0xf8, 0xf3, 0xfd, 0xfb, 0xf6, 0x00, 0xf2, 0xfe, 0xfc, 0xf9, 0x12, 0xfc,
  0x14, 0xfa, 0x1e, 0xeb, 0xfe, 0xdd, 0xf7, 0xe3, 0x12, 0xfd, 0x1d, 0xff,
